#include "magic_wand_model_data.h"

// We need to keep the data array aligned on some architectures.
#ifdef __has_attribute
#define HAVE_ATTRIBUTE(x) __has_attribute(x)
#else
#define HAVE_ATTRIBUTE(x) 0
#endif
#if HAVE_ATTRIBUTE(aligned) || (defined(__GNUC__) && !defined(__clang__))
#define DATA_ALIGN_ATTRIBUTE __attribute__((aligned(4)))
#else
#define DATA_ALIGN_ATTRIBUTE
#endif

const unsigned char g_magic_wand_model_data[] DATA_ALIGN_ATTRIBUTE = {
  0x1c, 0x00, 0x00, 0x00, 0x54, 0x46, 0x4c, 0x33, 0x14, 0x00, 0x20, 0x00,
  0x04, 0x00, 0x08, 0x00, 0x0c, 0x00, 0x10, 0x00, 0x14, 0x00, 0x00, 0x00,
  0x18, 0x00, 0x1c, 0x00, 0x14, 0x00, 0x00, 0x00, 0x03, 0x00, 0x00, 0x00,
  0x18, 0x00, 0x00, 0x00, 0x2c, 0x00, 0x00, 0x00, 0xd8, 0x00, 0x00, 0x00,
  0x2c, 0x00, 0x00, 0x00, 0x80, 0x00, 0x00, 0x00, 0x78, 0x00, 0x00, 0x00,
  0x05, 0x00, 0x00, 0x00, 0x28, 0x07, 0x00, 0x00, 0x44, 0x06, 0x00, 0x00,
  0xbc, 0x03, 0x00, 0x00, 0xf8, 0x02, 0x00, 0x00, 0xac, 0x01, 0x00, 0x00,
  0x01, 0x00, 0x00, 0x00, 0xd0, 0x00, 0x00, 0x00, 0x14, 0x00, 0x00, 0x00,
  0x98, 0x32, 0x00, 0x00, 0x94, 0x32, 0x00, 0x00, 0x8c, 0x31, 0x00, 0x00,
  0xd8, 0x30, 0x00, 0x00, 0x30, 0x30, 0x00, 0x00, 0xbc, 0x2f, 0x00, 0x00,
  0x50, 0x2f, 0x00, 0x00, 0x00, 0x13, 0x00, 0x00, 0xec, 0x11, 0x00, 0x00,
  0x10, 0x10, 0x00, 0x00, 0xb4, 0x07, 0x00, 0x00, 0x6c, 0x32, 0x00, 0x00,
  0x68, 0x32, 0x00, 0x00, 0x64, 0x32, 0x00, 0x00, 0x60, 0x32, 0x00, 0x00,
  0x5c, 0x32, 0x00, 0x00, 0x58, 0x32, 0x00, 0x00, 0x54, 0x32, 0x00, 0x00,
  0x50, 0x32, 0x00, 0x00, 0x3c, 0x00, 0x00, 0x00, 0x00, 0x00, 0x00, 0x00,
  0x01, 0x00, 0x00, 0x00, 0x0c, 0x00, 0x00, 0x00, 0x08, 0x00, 0x0c, 0x00,
  0x04, 0x00, 0x08, 0x00, 0x08, 0x00, 0x00, 0x00, 0x08, 0x00, 0x00, 0x00,
  0x13, 0x00, 0x00, 0x00, 0x13, 0x00, 0x00, 0x00, 0x6d, 0x69, 0x6e, 0x5f,
  0x72, 0x75, 0x6e, 0x74, 0x69, 0x6d, 0x65, 0x5f, 0x76, 0x65, 0x72, 0x73,
  0x69, 0x6f, 0x6e, 0x00, 0xfa, 0xce, 0xff, 0xff, 0x04, 0x00, 0x00, 0x00,
  0x10, 0x00, 0x00, 0x00, 0x31, 0x2e, 0x35, 0x2e, 0x30, 0x00, 0x00, 0x00,
  0x00, 0x00, 0x00, 0x00, 0x00, 0x00, 0x00, 0x00, 0x0f, 0x00, 0x00, 0x00,
  0x4d, 0x4c, 0x49, 0x52, 0x20, 0x43, 0x6f, 0x6e, 0x76, 0x65, 0x72, 0x74,
  0x65, 0x64, 0x2e, 0x00, 0x00, 0x00, 0x0e, 0x00, 0x18, 0x00, 0x04, 0x00,
  0x08, 0x00, 0x0c, 0x00, 0x10, 0x00, 0x14, 0x00, 0x0e, 0x00, 0x00, 0x00,
  0x14, 0x00, 0x00, 0x00, 0x5c, 0x00, 0x00, 0x00, 0x60, 0x00, 0x00, 0x00,
  0x64, 0x00, 0x00, 0x00, 0x84, 0x00, 0x00, 0x00, 0x12, 0x00, 0x00, 0x00,
  0x58, 0x31, 0x00, 0x00, 0xe8, 0x30, 0x00, 0x00, 0x44, 0x30, 0x00, 0x00,
  0x9c, 0x2f, 0x00, 0x00, 0xf4, 0x2e, 0x00, 0x00, 0x94, 0x2e, 0x00, 0x00,
  0x2c, 0x2e, 0x00, 0x00, 0xd8, 0x11, 0x00, 0x00, 0xbc, 0x10, 0x00, 0x00,
  0xe0, 0x0e, 0x00, 0x00, 0x0c, 0x06, 0x00, 0x00, 0x28, 0x05, 0x00, 0x00,
  0xe8, 0x03, 0x00, 0x00, 0x3c, 0x03, 0x00, 0x00, 0x98, 0x02, 0x00, 0x00,
  0xd4, 0x01, 0x00, 0x00, 0x10, 0x01, 0x00, 0x00, 0x84, 0x00, 0x00, 0x00,
  0x01, 0x00, 0x00, 0x00, 0x00, 0x00, 0x00, 0x00, 0x01, 0x00, 0x00, 0x00,
  0x11, 0x00, 0x00, 0x00, 0x08, 0x00, 0x00, 0x00, 0x74, 0x05, 0x00, 0x00,
  0x94, 0x04, 0x00, 0x00, 0x78, 0x03, 0x00, 0x00, 0xbc, 0x02, 0x00, 0x00,
  0x30, 0x02, 0x00, 0x00, 0x50, 0x01, 0x00, 0x00, 0xa8, 0x00, 0x00, 0x00,
  0x10, 0x00, 0x00, 0x00, 0x04, 0x00, 0x00, 0x00, 0x6d, 0x61, 0x69, 0x6e,
  0x00, 0x00, 0x00, 0x00, 0x7a, 0xff, 0xff, 0xff, 0x00, 0x00, 0x00, 0x09,
  0x04, 0x00, 0x00, 0x00, 0x1c, 0x00, 0x00, 0x00, 0x10, 0x00, 0x00, 0x00,
  0x04, 0x00, 0x00, 0x00, 0xf6, 0xcf, 0xff, 0xff, 0x00, 0x00, 0x80, 0x3f,
  0x01, 0x00, 0x00, 0x00, 0x11, 0x00, 0x00, 0x00, 0x01, 0x00, 0x00, 0x00,
  0x10, 0x00, 0x00, 0x00, 0xa0, 0xfa, 0xff, 0xff, 0x19, 0x00, 0x00, 0x00,
  0x00, 0x00, 0x00, 0x19, 0x01, 0x00, 0x00, 0x00, 0x84, 0xcf, 0xff, 0xff,
  0x14, 0x00, 0x00, 0x00, 0x12, 0x00, 0x00, 0x00, 0x18, 0x00, 0x00, 0x00,
  0x30, 0x00, 0x00, 0x00, 0x20, 0x00, 0x00, 0x00, 0x02, 0x00, 0x00, 0x00,
  0x01, 0x00, 0x00, 0x00, 0x03, 0x00, 0x00, 0x00, 0x08, 0x00, 0x00, 0x00,
  0x49, 0x64, 0x65, 0x6e, 0x74, 0x69, 0x74, 0x79, 0x00, 0x00, 0x00, 0x00,
  0x02, 0x00, 0x00, 0x00, 0xff, 0xff, 0xff, 0xff, 0x03, 0x00, 0x00, 0x00,
  0x68, 0xd0, 0xff, 0xff, 0x00, 0x00, 0x0e, 0x00, 0x18, 0x00, 0x08, 0x00,
  0x0c, 0x00, 0x10, 0x00, 0x07, 0x00, 0x14, 0x00, 0x0e, 0x00, 0x00, 0x00,
  0x00, 0x00, 0x00, 0x08, 0x03, 0x00, 0x00, 0x00, 0x18, 0x00, 0x00, 0x00,
  0x0c, 0x00, 0x00, 0x00, 0x04, 0x00, 0x00, 0x00, 0x84, 0xcf, 0xff, 0xff,
  0x01, 0x00, 0x00, 0x00, 0x10, 0x00, 0x00, 0x00, 0x03, 0x00, 0x00, 0x00,
  0x0f, 0x00, 0x00, 0x00, 0x07, 0x00, 0x00, 0x00, 0x04, 0x00, 0x00, 0x00,
  0x0c, 0xd0, 0xff, 0xff, 0x14, 0x00, 0x00, 0x00, 0x11, 0x00, 0x00, 0x00,
  0x18, 0x00, 0x00, 0x00, 0x5c, 0x00, 0x00, 0x00, 0x4c, 0x00, 0x00, 0x00,
  0x02, 0x00, 0x00, 0x00, 0x01, 0x00, 0x00, 0x00, 0x03, 0x00, 0x00, 0x00,
  0x34, 0x00, 0x00, 0x00, 0x73, 0x65, 0x71, 0x75, 0x65, 0x6e, 0x74, 0x69,
  0x61, 0x6c, 0x2f, 0x64, 0x65, 0x6e, 0x73, 0x65, 0x5f, 0x31, 0x2f, 0x4d,
  0x61, 0x74, 0x4d, 0x75, 0x6c, 0x3b, 0x73, 0x65, 0x71, 0x75, 0x65, 0x6e,
  0x74, 0x69, 0x61, 0x6c, 0x2f, 0x64, 0x65, 0x6e, 0x73, 0x65, 0x5f, 0x31,
  0x2f, 0x42, 0x69, 0x61, 0x73, 0x41, 0x64, 0x64, 0x00, 0x00, 0x00, 0x00,
  0x02, 0x00, 0x00, 0x00, 0xff, 0xff, 0xff, 0xff, 0x03, 0x00, 0x00, 0x00,
  0x0c, 0xd0, 0xff, 0xff, 0xda, 0xfc, 0xff, 0xff, 0x00, 0x00, 0x00, 0x08,
  0x03, 0x00, 0x00, 0x00, 0x24, 0x00, 0x00, 0x00, 0x18, 0x00, 0x00, 0x00,
  0x0c, 0x00, 0x00, 0x00, 0x00, 0x00, 0x06, 0x00, 0x08, 0x00, 0x07, 0x00,
  0x06, 0x00, 0x00, 0x00, 0x00, 0x00, 0x00, 0x01, 0x01, 0x00, 0x00, 0x00,
  0x0f, 0x00, 0x00, 0x00, 0x03, 0x00, 0x00, 0x00, 0x0e, 0x00, 0x00, 0x00,
  0x06, 0x00, 0x00, 0x00, 0x03, 0x00, 0x00, 0x00, 0xe8, 0xfb, 0xff, 0xff,
  0x09, 0x00, 0x00, 0x00, 0x00, 0x00, 0x00, 0x09, 0x01, 0x00, 0x00, 0x00,
  0xcc, 0xd0, 0xff, 0xff, 0x14, 0x00, 0x00, 0x00, 0x10, 0x00, 0x00, 0x00,
  0x18, 0x00, 0x00, 0x00, 0x6c, 0x00, 0x00, 0x00, 0x5c, 0x00, 0x00, 0x00,
  0x02, 0x00, 0x00, 0x00, 0x01, 0x00, 0x00, 0x00, 0x10, 0x00, 0x00, 0x00,
  0x46, 0x00, 0x00, 0x00, 0x73, 0x65, 0x71, 0x75, 0x65, 0x6e, 0x74, 0x69,
  0x61, 0x6c, 0x2f, 0x64, 0x65, 0x6e, 0x73, 0x65, 0x2f, 0x4d, 0x61, 0x74,
  0x4d, 0x75, 0x6c, 0x3b, 0x73, 0x65, 0x71, 0x75, 0x65, 0x6e, 0x74, 0x69,
  0x61, 0x6c, 0x2f, 0x64, 0x65, 0x6e, 0x73, 0x65, 0x2f, 0x52, 0x65, 0x6c,
  0x75, 0x3b, 0x73, 0x65, 0x71, 0x75, 0x65, 0x6e, 0x74, 0x69, 0x61, 0x6c,
  0x2f, 0x64, 0x65, 0x6e, 0x73, 0x65, 0x2f, 0x42, 0x69, 0x61, 0x73, 0x41,
  0x64, 0x64, 0x00, 0x00, 0x02, 0x00, 0x00, 0x00, 0xff, 0xff, 0xff, 0xff,
  0x10, 0x00, 0x00, 0x00, 0xec, 0xd1, 0xff, 0xff, 0x00, 0x00, 0x0a, 0x00,
  0x10, 0x00, 0x04, 0x00, 0x08, 0x00, 0x0c, 0x00, 0x0a, 0x00, 0x00, 0x00,
  0x02, 0x00, 0x00, 0x00, 0x10, 0x00, 0x00, 0x00, 0x04, 0x00, 0x00, 0x00,
  0x01, 0x00, 0x00, 0x00, 0x0e, 0x00, 0x00, 0x00, 0x02, 0x00, 0x00, 0x00,
  0x0d, 0x00, 0x00, 0x00, 0x05, 0x00, 0x00, 0x00, 0xa8, 0xfc, 0xff, 0xff,
  0x16, 0x00, 0x00, 0x00, 0x00, 0x00, 0x00, 0x16, 0x01, 0x00, 0x00, 0x00,
  0x8c, 0xd1, 0xff, 0xff, 0x14, 0x00, 0x00, 0x00, 0x0f, 0x00, 0x00, 0x00,
  0x18, 0x00, 0x00, 0x00, 0x40, 0x00, 0x00, 0x00, 0x30, 0x00, 0x00, 0x00,
  0x02, 0x00, 0x00, 0x00, 0x01, 0x00, 0x00, 0x00, 0x70, 0x00, 0x00, 0x00,
  0x1a, 0x00, 0x00, 0x00, 0x73, 0x65, 0x71, 0x75, 0x65, 0x6e, 0x74, 0x69,
  0x61, 0x6c, 0x2f, 0x66, 0x6c, 0x61, 0x74, 0x74, 0x65, 0x6e, 0x2f, 0x52,
  0x65, 0x73, 0x68, 0x61, 0x70, 0x65, 0x00, 0x00, 0x02, 0x00, 0x00, 0x00,
  0xff, 0xff, 0xff, 0xff, 0x70, 0x00, 0x00, 0x00, 0x70, 0xd1, 0xff, 0xff,
  0x3e, 0xfe, 0xff, 0xff, 0x00, 0x00, 0x00, 0x05, 0x01, 0x00, 0x00, 0x00,
  0x38, 0x00, 0x00, 0x00, 0x2c, 0x00, 0x00, 0x00, 0x14, 0x00, 0x00, 0x00,
  0x00, 0x00, 0x0e, 0x00, 0x14, 0x00, 0x00, 0x00, 0x10, 0x00, 0x0c, 0x00,
  0x08, 0x00, 0x04, 0x00, 0x0e, 0x00, 0x00, 0x00, 0x03, 0x00, 0x00, 0x00,
  0x01, 0x00, 0x00, 0x00, 0x03, 0x00, 0x00, 0x00, 0x01, 0x00, 0x00, 0x00,
  0x01, 0x00, 0x00, 0x00, 0x0d, 0x00, 0x00, 0x00, 0x01, 0x00, 0x00, 0x00,
  0x0c, 0x00, 0x00, 0x00, 0x2c, 0xd2, 0xff, 0xff, 0x14, 0x00, 0x00, 0x00,
  0x0e, 0x00, 0x00, 0x00, 0x20, 0x00, 0x00, 0x00, 0x58, 0x00, 0x00, 0x00,
  0x40, 0x00, 0x00, 0x00, 0x04, 0x00, 0x00, 0x00, 0x01, 0x00, 0x00, 0x00,
  0x07, 0x00, 0x00, 0x00, 0x01, 0x00, 0x00, 0x00, 0x10, 0x00, 0x00, 0x00,
  0x22, 0x00, 0x00, 0x00, 0x73, 0x65, 0x71, 0x75, 0x65, 0x6e, 0x74, 0x69,
  0x61, 0x6c, 0x2f, 0x6d, 0x61, 0x78, 0x5f, 0x70, 0x6f, 0x6f, 0x6c, 0x69,
  0x6e, 0x67, 0x32, 0x64, 0x5f, 0x31, 0x2f, 0x4d, 0x61, 0x78, 0x50, 0x6f,
  0x6f, 0x6c, 0x00, 0x00, 0x04, 0x00, 0x00, 0x00, 0xff, 0xff, 0xff, 0xff,
  0x07, 0x00, 0x00, 0x00, 0x01, 0x00, 0x00, 0x00, 0x10, 0x00, 0x00, 0x00,
  0x28, 0xd2, 0xff, 0xff, 0x1a, 0xfe, 0xff, 0xff, 0x00, 0x00, 0x00, 0x01,
  0x24, 0x00, 0x00, 0x00, 0x18, 0x00, 0x00, 0x00, 0x04, 0x00, 0x00, 0x00,
  0x0c, 0xfe, 0xff, 0xff, 0x01, 0x00, 0x00, 0x00, 0x01, 0x00, 0x00, 0x00,
  0x00, 0x00, 0x00, 0x01, 0x01, 0x00, 0x00, 0x00, 0x0c, 0x00, 0x00, 0x00,
  0x03, 0x00, 0x00, 0x00, 0x0b, 0x00, 0x00, 0x00, 0x09, 0x00, 0x00, 0x00,
  0x02, 0x00, 0x00, 0x00, 0xd4, 0xd2, 0xff, 0xff, 0x14, 0x00, 0x00, 0x00,
  0x0d, 0x00, 0x00, 0x00, 0x20, 0x00, 0x00, 0x00, 0xb8, 0x00, 0x00, 0x00,
  0xa0, 0x00, 0x00, 0x00, 0x04, 0x00, 0x00, 0x00, 0x01, 0x00, 0x00, 0x00,
  0x15, 0x00, 0x00, 0x00, 0x01, 0x00, 0x00, 0x00, 0x10, 0x00, 0x00, 0x00,
  0x83, 0x00, 0x00, 0x00, 0x73, 0x65, 0x71, 0x75, 0x65, 0x6e, 0x74, 0x69,
  0x61, 0x6c, 0x2f, 0x63, 0x6f, 0x6e, 0x76, 0x32, 0x64, 0x5f, 0x31, 0x2f,
  0x52, 0x65, 0x6c, 0x75, 0x3b, 0x73, 0x65, 0x71, 0x75, 0x65, 0x6e, 0x74,
  0x69, 0x61, 0x6c, 0x2f, 0x63, 0x6f, 0x6e, 0x76, 0x32, 0x64, 0x5f, 0x31,
  0x2f, 0x42, 0x69, 0x61, 0x73, 0x41, 0x64, 0x64, 0x3b, 0x73, 0x65, 0x71,
  0x75, 0x65, 0x6e, 0x74, 0x69, 0x61, 0x6c, 0x2f, 0x63, 0x6f, 0x6e, 0x76,
  0x32, 0x64, 0x5f, 0x31, 0x2f, 0x43, 0x6f, 0x6e, 0x76, 0x32, 0x44, 0x3b,
  0x73, 0x65, 0x71, 0x75, 0x65, 0x6e, 0x74, 0x69, 0x61, 0x6c, 0x2f, 0x63,
  0x6f, 0x6e, 0x76, 0x32, 0x64, 0x5f, 0x31, 0x2f, 0x42, 0x69, 0x61, 0x73,
  0x41, 0x64, 0x64, 0x2f, 0x52, 0x65, 0x61, 0x64, 0x56, 0x61, 0x72, 0x69,
  0x61, 0x62, 0x6c, 0x65, 0x4f, 0x70, 0x2f, 0x72, 0x65, 0x73, 0x6f, 0x75,
  0x72, 0x63, 0x65, 0x00, 0x04, 0x00, 0x00, 0x00, 0xff, 0xff, 0xff, 0xff,
  0x15, 0x00, 0x00, 0x00, 0x01, 0x00, 0x00, 0x00, 0x10, 0x00, 0x00, 0x00,
  0x40, 0xd4, 0xff, 0xff, 0x00, 0x00, 0x0e, 0x00, 0x1a, 0x00, 0x08, 0x00,
  0x0c, 0x00, 0x10, 0x00, 0x07, 0x00, 0x14, 0x00, 0x0e, 0x00, 0x00, 0x00,
  0x00, 0x00, 0x00, 0x05, 0x01, 0x00, 0x00, 0x00, 0x3c, 0x00, 0x00, 0x00,
  0x30, 0x00, 0x00, 0x00, 0x14, 0x00, 0x00, 0x00, 0x00, 0x00, 0x0e, 0x00,
  0x18, 0x00, 0x17, 0x00, 0x10, 0x00, 0x0c, 0x00, 0x08, 0x00, 0x04, 0x00,
  0x0e, 0x00, 0x00, 0x00, 0x03, 0x00, 0x00, 0x00, 0x03, 0x00, 0x00, 0x00,
  0x03, 0x00, 0x00, 0x00, 0x03, 0x00, 0x00, 0x00, 0x00, 0x00, 0x00, 0x01,
  0x01, 0x00, 0x00, 0x00, 0x0b, 0x00, 0x00, 0x00, 0x01, 0x00, 0x00, 0x00,
  0x0a, 0x00, 0x00, 0x00, 0x2c, 0xff, 0xff, 0xff, 0x11, 0x00, 0x00, 0x00,
  0x00, 0x00, 0x00, 0x11, 0x01, 0x00, 0x00, 0x00, 0x10, 0xd4, 0xff, 0xff,
  0x14, 0x00, 0x00, 0x00, 0x0c, 0x00, 0x00, 0x00, 0x20, 0x00, 0x00, 0x00,
  0x58, 0x00, 0x00, 0x00, 0x40, 0x00, 0x00, 0x00, 0x04, 0x00, 0x00, 0x00,
  0x01, 0x00, 0x00, 0x00, 0x15, 0x00, 0x00, 0x00, 0x01, 0x00, 0x00, 0x00,
  0x08, 0x00, 0x00, 0x00, 0x20, 0x00, 0x00, 0x00, 0x73, 0x65, 0x71, 0x75,
  0x65, 0x6e, 0x74, 0x69, 0x61, 0x6c, 0x2f, 0x6d, 0x61, 0x78, 0x5f, 0x70,
  0x6f, 0x6f, 0x6c, 0x69, 0x6e, 0x67, 0x32, 0x64, 0x2f, 0x4d, 0x61, 0x78,
  0x50, 0x6f, 0x6f, 0x6c, 0x00, 0x00, 0x00, 0x00, 0x04, 0x00, 0x00, 0x00,
  0xff, 0xff, 0xff, 0xff, 0x15, 0x00, 0x00, 0x00, 0x01, 0x00, 0x00, 0x00,
  0x08, 0x00, 0x00, 0x00, 0x1c, 0xd5, 0xff, 0xff, 0x00, 0x00, 0x0e, 0x00,
  0x14, 0x00, 0x00, 0x00, 0x08, 0x00, 0x0c, 0x00, 0x07, 0x00, 0x10, 0x00,
  0x0e, 0x00, 0x00, 0x00, 0x00, 0x00, 0x00, 0x01, 0x30, 0x00, 0x00, 0x00,
  0x24, 0x00, 0x00, 0x00, 0x10, 0x00, 0x00, 0x00, 0x0c, 0x00, 0x10, 0x00,
  0x00, 0x00, 0x04, 0x00, 0x08, 0x00, 0x0f, 0x00, 0x0c, 0x00, 0x00, 0x00,
  0x01, 0x00, 0x00, 0x00, 0x01, 0x00, 0x00, 0x00, 0x00, 0x00, 0x00, 0x01,
  0x01, 0x00, 0x00, 0x00, 0x0a, 0x00, 0x00, 0x00, 0x03, 0x00, 0x00, 0x00,
  0x00, 0x00, 0x00, 0x00, 0x08, 0x00, 0x00, 0x00, 0x01, 0x00, 0x00, 0x00,
  0x0c, 0x00, 0x10, 0x00, 0x0b, 0x00, 0x00, 0x00, 0x0c, 0x00, 0x04, 0x00,
  0x0c, 0x00, 0x00, 0x00, 0x03, 0x00, 0x00, 0x00, 0x00, 0x00, 0x00, 0x03,
  0x01, 0x00, 0x00, 0x00, 0xf0, 0xd4, 0xff, 0xff, 0x14, 0x00, 0x00, 0x00,
  0x0b, 0x00, 0x00, 0x00, 0x20, 0x00, 0x00, 0x00, 0xb0, 0x00, 0x00, 0x00,
  0x98, 0x00, 0x00, 0x00, 0x04, 0x00, 0x00, 0x00, 0x01, 0x00, 0x00, 0x00,
  0x40, 0x00, 0x00, 0x00, 0x03, 0x00, 0x00, 0x00, 0x08, 0x00, 0x00, 0x00,
  0x7b, 0x00, 0x00, 0x00, 0x73, 0x65, 0x71, 0x75, 0x65, 0x6e, 0x74, 0x69,
  0x61, 0x6c, 0x2f, 0x63, 0x6f, 0x6e, 0x76, 0x32, 0x64, 0x2f, 0x52, 0x65,
  0x6c, 0x75, 0x3b, 0x73, 0x65, 0x71, 0x75, 0x65, 0x6e, 0x74, 0x69, 0x61,
  0x6c, 0x2f, 0x63, 0x6f, 0x6e, 0x76, 0x32, 0x64, 0x2f, 0x42, 0x69, 0x61,
  0x73, 0x41, 0x64, 0x64, 0x3b, 0x73, 0x65, 0x71, 0x75, 0x65, 0x6e, 0x74,
  0x69, 0x61, 0x6c, 0x2f, 0x63, 0x6f, 0x6e, 0x76, 0x32, 0x64, 0x2f, 0x43,
  0x6f, 0x6e, 0x76, 0x32, 0x44, 0x3b, 0x73, 0x65, 0x71, 0x75, 0x65, 0x6e,
  0x74, 0x69, 0x61, 0x6c, 0x2f, 0x63, 0x6f, 0x6e, 0x76, 0x32, 0x64, 0x2f,
  0x42, 0x69, 0x61, 0x73, 0x41, 0x64, 0x64, 0x2f, 0x52, 0x65, 0x61, 0x64,
  0x56, 0x61, 0x72, 0x69, 0x61, 0x62, 0x6c, 0x65, 0x4f, 0x70, 0x2f, 0x72,
  0x65, 0x73, 0x6f, 0x75, 0x72, 0x63, 0x65, 0x00, 0x04, 0x00, 0x00, 0x00,
  0xff, 0xff, 0xff, 0xff, 0x40, 0x00, 0x00, 0x00, 0x03, 0x00, 0x00, 0x00,
  0x08, 0x00, 0x00, 0x00, 0x44, 0xd5, 0xff, 0xff, 0x4e, 0xd6, 0xff, 0xff,
  0x04, 0x00, 0x00, 0x00, 0x00, 0x08, 0x00, 0x00, 0xf6, 0x15, 0x14, 0x3e,
  0x8f, 0x26, 0xe8, 0xbd, 0x21, 0xc8, 0x5b, 0xbe, 0x75, 0x9d, 0xa1, 0xbe,
  0xec, 0xb5, 0x0b, 0x3e, 0xb1, 0x97, 0x13, 0x3f, 0x0d, 0xa2, 0xdd, 0xbd,
  0x6c, 0x91, 0x3b, 0xbe, 0x96, 0x6c, 0x02, 0x3e, 0x91, 0x86, 0xe4, 0xbd,
  0xfe, 0xbe, 0x43, 0xbe, 0x34, 0x32, 0x04, 0x3f, 0xe2, 0xb1, 0x06, 0x3e,
  0xeb, 0x80, 0xd9, 0xbc, 0x63, 0x4a, 0xb1, 0xbe, 0x02, 0x43, 0xd1, 0x3d,
  0x90, 0xed, 0xcc, 0xbd, 0xee, 0xa5, 0x44, 0xbe, 0x1d, 0x51, 0x12, 0xbe,
  0x33, 0xbc, 0xf3, 0xbb, 0x3f, 0xd5, 0xb4, 0x3e, 0xfc, 0xc2, 0x4e, 0x3e,
  0x00, 0x7f, 0xfd, 0xbd, 0xc0, 0x98, 0x8e, 0x3d, 0x01, 0x94, 0xe2, 0xbd,
  0xd8, 0x1b, 0x2c, 0xbe, 0xc5, 0x06, 0xba, 0xbd, 0xbf, 0x4a, 0xd0, 0xbd,
  0x38, 0x5f, 0x0e, 0x3e, 0x72, 0x7c, 0x10, 0x3e, 0xc8, 0xe6, 0x0a, 0xbd,
  0x00, 0xf4, 0xcd, 0x34, 0xec, 0x7f, 0x36, 0xbe, 0x18, 0x09, 0xce, 0xbc,
  0x0f, 0xa1, 0xe2, 0xbd, 0x75, 0x7f, 0x4c, 0xbe, 0xba, 0xe3, 0x8c, 0x3d,
  0x55, 0x13, 0x9b, 0xbd, 0x48, 0x30, 0x1f, 0xbd, 0x7d, 0x91, 0x1c, 0xbe,
  0x12, 0x6d, 0xa0, 0xbe, 0x1c, 0x2e, 0x64, 0xbe, 0xd1, 0x3c, 0x1f, 0xbe,
  0xbe, 0x40, 0xdd, 0x3b, 0x82, 0x6c, 0xf2, 0x3e, 0xf1, 0x04, 0x4e, 0xbe,
  0x2a, 0x26, 0x3f, 0xbd, 0x33, 0xf1, 0xf5, 0x3a, 0xa3, 0xd7, 0xd3, 0xbe,
  0x4f, 0x9b, 0x97, 0x3e, 0x17, 0x25, 0xc1, 0xbc, 0xfa, 0x03, 0x86, 0xbd,
  0x4f, 0x41, 0xe0, 0xbd, 0x4d, 0x8d, 0x02, 0x3e, 0xad, 0x91, 0xc8, 0x3b,
  0x50, 0xd9, 0x27, 0xbd, 0x8c, 0x4e, 0x0c, 0x3d, 0x70, 0xaa, 0x2f, 0xbe,
  0xa4, 0x07, 0x35, 0xbd, 0x57, 0xa4, 0x80, 0xbe, 0x98, 0xbd, 0x0c, 0xbe,
  0x97, 0x2a, 0xbf, 0x3d, 0xbb, 0x95, 0xe8, 0x3b, 0xb2, 0x2a, 0xa7, 0x3d,
  0x10, 0x5c, 0xa4, 0x3d, 0xb7, 0xf1, 0x83, 0xbe, 0x41, 0xf6, 0x15, 0xbf,
  0x00, 0xaf, 0x84, 0xbd, 0x76, 0x5a, 0x4f, 0xbe, 0x0d, 0xbc, 0x63, 0xbc,
  0x13, 0x48, 0xbf, 0xbe, 0x61, 0x6a, 0x5e, 0x3c, 0x20, 0x0a, 0xd1, 0x3e,
  0x74, 0x0e, 0x41, 0xbd, 0x7d, 0x54, 0x72, 0x3e, 0x68, 0x30, 0xbe, 0xbd,
  0x05, 0xbf, 0xbf, 0xbe, 0x82, 0x76, 0x48, 0xbe, 0x1e, 0x7c, 0x4c, 0x3e,
  0x45, 0x9d, 0x42, 0x3d, 0x20, 0x62, 0x63, 0xbe, 0xfa, 0xbf, 0xc2, 0xbc,
  0x9a, 0x77, 0x71, 0x3a, 0xe8, 0x8f, 0x0b, 0xba, 0xa3, 0xc8, 0x99, 0xbe,
  0xaa, 0xd8, 0x50, 0xbe, 0xa5, 0xed, 0xf3, 0xbd, 0xec, 0xba, 0x4c, 0xbe,
  0x9c, 0x37, 0x28, 0x3d, 0x68, 0xc5, 0xb2, 0xbd, 0xf0, 0xee, 0x85, 0x3d,
  0xdf, 0x03, 0x38, 0x3d, 0x01, 0xac, 0xb0, 0xbc, 0x38, 0xeb, 0x31, 0xbd,
  0xe4, 0x2a, 0x14, 0x3d, 0x28, 0x6a, 0xd1, 0x3c, 0x8c, 0xf1, 0xc2, 0xbd,
  0x2f, 0x76, 0x05, 0xbe, 0xc0, 0x6f, 0x24, 0xbe, 0xe4, 0xb5, 0xb2, 0xbc,
  0x39, 0x9e, 0x5c, 0x3e, 0x9a, 0x82, 0xa5, 0xbc, 0xa1, 0x79, 0x61, 0xbe,
  0xe0, 0x4a, 0x38, 0xbe, 0x13, 0xc1, 0x06, 0x3f, 0x04, 0x7b, 0x6f, 0x3e,
  0x74, 0x48, 0x0a, 0xbe, 0xf7, 0xa6, 0x37, 0x3e, 0xf0, 0xed, 0x38, 0xbe,
  0xa8, 0x03, 0xb6, 0x3c, 0xa7, 0x4b, 0x92, 0xbd, 0xb5, 0xc3, 0xac, 0x3d,
  0x4d, 0x78, 0xc0, 0xba, 0xd7, 0xee, 0x01, 0x3d, 0x3b, 0xe5, 0x2b, 0xbe,
  0x5c, 0xa2, 0xb2, 0xbd, 0x0b, 0x24, 0x78, 0x3e, 0xb2, 0x4f, 0x9e, 0xbd,
  0xdb, 0x34, 0xef, 0xbd, 0x59, 0x04, 0xce, 0xbd, 0xab, 0xb3, 0xe0, 0xbc,
  0x1d, 0xf6, 0x0e, 0xbd, 0x4e, 0x12, 0x1a, 0xbe, 0xb4, 0xbb, 0xda, 0x3d,
  0x49, 0x35, 0x99, 0x3e, 0x4b, 0x0b, 0x00, 0x3b, 0xab, 0x89, 0xaa, 0xbc,
  0x90, 0x84, 0x15, 0x3d, 0x82, 0x4a, 0x8f, 0x3d, 0xbd, 0xc5, 0x68, 0x3c,
  0x72, 0xea, 0x1b, 0xbc, 0xe3, 0x53, 0xa8, 0xbb, 0xa6, 0x1f, 0x1c, 0xbd,
  0x56, 0xfd, 0x5d, 0x3f, 0x16, 0xce, 0x35, 0xbc, 0xa8, 0x9e, 0x2f, 0x3e,
  0x27, 0x84, 0x94, 0x3e, 0x85, 0x67, 0xc6, 0xbd, 0x31, 0x97, 0x6e, 0xbd,
  0x84, 0x6c, 0x93, 0xbd, 0x18, 0x40, 0x00, 0xbe, 0xd7, 0x05, 0x4b, 0xbd,
  0x7c, 0xe5, 0xe2, 0x3d, 0xff, 0xcb, 0x47, 0xbd, 0xdc, 0x9c, 0x8a, 0x3e,
  0x89, 0x24, 0x82, 0xbd, 0x61, 0x66, 0x01, 0xbd, 0xc6, 0x7f, 0x98, 0xbd,
  0x9e, 0xe8, 0xa9, 0xbd, 0x00, 0x08, 0xcf, 0xbd, 0x8e, 0xb5, 0xe0, 0xbd,
  0xa3, 0xb2, 0x69, 0xbe, 0x04, 0xc3, 0x88, 0x3d, 0x74, 0x0a, 0x8c, 0x3b,
  0xad, 0xe6, 0x53, 0xbd, 0xb5, 0x45, 0x4f, 0xbd, 0x48, 0x80, 0xbb, 0xb9,
  0x79, 0x29, 0x50, 0xbe, 0x2a, 0x34, 0x40, 0xbe, 0x3e, 0x85, 0x00, 0xbe,
  0x0a, 0xb1, 0x50, 0xbe, 0x7e, 0xa1, 0x35, 0x3d, 0x16, 0x89, 0x72, 0xbd,
  0x77, 0x6c, 0x85, 0x3e, 0x47, 0x86, 0x84, 0xbd, 0x9b, 0xc1, 0x18, 0x3f,
  0x02, 0x6a, 0x4d, 0xbd, 0x02, 0xa6, 0xdd, 0xbc, 0x32, 0xb2, 0x2c, 0xbe,
  0xd7, 0xfa, 0x27, 0x3c, 0x4d, 0x1f, 0x33, 0xbd, 0xef, 0x32, 0x88, 0xbd,
  0xd8, 0x0e, 0xe5, 0x3b, 0xe0, 0x4e, 0xdb, 0x3d, 0xf5, 0xbb, 0x2b, 0xbc,
  0x12, 0x25, 0x5e, 0xbd, 0xaa, 0x5b, 0x1a, 0xbd, 0xab, 0x74, 0x14, 0xbe,
  0x70, 0xd2, 0x2b, 0xbd, 0xf0, 0xbb, 0xc5, 0xbd, 0x45, 0xe1, 0x24, 0x3e,
  0x29, 0x3f, 0x3b, 0xbe, 0x1c, 0x61, 0x52, 0x3e, 0xa5, 0xb6, 0x0b, 0xbd,
  0x87, 0x87, 0xaf, 0xbd, 0xf9, 0xaa, 0x31, 0xbe, 0x23, 0x49, 0x79, 0xbd,
  0x24, 0xf0, 0x29, 0xbd, 0x89, 0x1f, 0xd6, 0xbd, 0xcb, 0x35, 0xa8, 0x3d,
  0x20, 0x89, 0x3f, 0xbc, 0xa3, 0x29, 0x97, 0xbe, 0x34, 0x56, 0xfb, 0xbe,
  0x53, 0xef, 0x05, 0xbe, 0x3d, 0xe0, 0xfa, 0xbd, 0xda, 0x0e, 0x49, 0xbe,
  0x5a, 0xeb, 0x93, 0xbd, 0xc3, 0xd8, 0xc2, 0xbe, 0x43, 0x68, 0xc9, 0xbd,
  0x0a, 0xa0, 0x17, 0xbe, 0x12, 0x71, 0x0a, 0xbf, 0x71, 0x59, 0x69, 0x3d,
  0xed, 0xa3, 0xc0, 0xbd, 0xa9, 0x0c, 0xea, 0xbd, 0xad, 0xb5, 0x52, 0xbe,
  0x65, 0xe5, 0x61, 0xbe, 0xf2, 0x8a, 0xd8, 0xbd, 0x9c, 0x0d, 0xec, 0xbd,
  0x21, 0x8b, 0x79, 0x3d, 0x3b, 0x93, 0xc2, 0x3d, 0x22, 0x3b, 0xa2, 0xbd,
  0x1f, 0xfd, 0x9a, 0x3d, 0x9d, 0xc2, 0xfa, 0xbc, 0xcb, 0x62, 0x1c, 0x3e,
  0xca, 0x85, 0x22, 0xbe, 0xd3, 0xa3, 0x8f, 0xbe, 0x87, 0x7e, 0x0b, 0x3f,
  0x71, 0x76, 0xd6, 0x3c, 0x08, 0xd1, 0xe6, 0xbd, 0x57, 0xbd, 0x98, 0x3e,
  0x64, 0x36, 0x4e, 0x3e, 0x21, 0x69, 0x9e, 0x3c, 0x8a, 0x9a, 0xa1, 0xbe,
  0x94, 0x2e, 0xac, 0xbb, 0xdf, 0x2e, 0xa3, 0xbd, 0x2d, 0x9b, 0xc4, 0x3d,
  0x44, 0x4b, 0xa4, 0xbe, 0xc5, 0xc9, 0x4f, 0x3e, 0xb2, 0xfb, 0x26, 0xbe,
  0x20, 0x1b, 0x65, 0xbd, 0x66, 0x5a, 0xe5, 0x3d, 0x4f, 0xee, 0x98, 0xbd,
  0x7c, 0x0d, 0xba, 0x3a, 0xba, 0x81, 0xc4, 0x3d, 0x26, 0x0e, 0x9d, 0xbe,
  0x97, 0xf4, 0x39, 0x3d, 0xf7, 0x9f, 0xcf, 0x3c, 0x81, 0x03, 0x4c, 0xbe,
  0x6d, 0xdd, 0x65, 0x3e, 0x00, 0x9a, 0xa6, 0xbe, 0x60, 0xfb, 0xe5, 0xbd,
  0xee, 0x36, 0x76, 0x3e, 0xeb, 0xca, 0x4f, 0xbe, 0xe7, 0x8b, 0x0a, 0xbe,
  0xa9, 0xdd, 0x20, 0xbe, 0x8e, 0xd1, 0x10, 0xbd, 0x21, 0x78, 0x5a, 0x3e,
  0xfd, 0x47, 0x22, 0xbd, 0x7f, 0x1e, 0x70, 0xbe, 0x84, 0x8b, 0x63, 0xbd,
  0x33, 0x04, 0x5b, 0xbe, 0xb3, 0x80, 0x6f, 0x3c, 0xdc, 0xa1, 0x64, 0x3d,
  0xec, 0x9b, 0x00, 0x3d, 0x52, 0xe3, 0x32, 0xbd, 0x8a, 0xd6, 0xf6, 0x3c,
  0x94, 0xc5, 0x10, 0x3e, 0x5b, 0x1b, 0x15, 0xbe, 0x3b, 0x6e, 0xf3, 0xbd,
  0x27, 0x16, 0x46, 0xbd, 0xc7, 0xf6, 0x2b, 0xbe, 0x82, 0xb9, 0xf6, 0xbd,
  0x95, 0xda, 0x57, 0xbe, 0x03, 0x50, 0xe1, 0xbe, 0x14, 0x72, 0xa9, 0xbd,
  0x93, 0xf0, 0xee, 0xbd, 0x2c, 0x30, 0xbd, 0xbd, 0xf7, 0x45, 0x98, 0xbd,
  0xfb, 0x3d, 0x06, 0xbe, 0x47, 0xf1, 0xf4, 0x3c, 0x40, 0x39, 0x50, 0xbe,
  0xda, 0xfe, 0x8a, 0xbe, 0x3f, 0x45, 0xb2, 0xbe, 0x1f, 0x10, 0xd3, 0xbc,
  0xc5, 0xbd, 0xa3, 0xbd, 0x73, 0x58, 0xc8, 0xbd, 0x36, 0x75, 0xf2, 0x3d,
  0x20, 0x91, 0x8c, 0x3e, 0xea, 0xf7, 0xfc, 0xbd, 0xfb, 0x38, 0xbd, 0x3e,
  0x9d, 0xec, 0x8c, 0x3e, 0xd6, 0x97, 0x19, 0xbd, 0xe0, 0x04, 0xf8, 0x3d,
  0xc7, 0x75, 0xea, 0xbd, 0x6e, 0x98, 0x7e, 0x3c, 0xda, 0x38, 0x28, 0x3d,
  0x53, 0xfc, 0xb1, 0x3e, 0xb6, 0x42, 0xd7, 0x3e, 0x02, 0x7b, 0x8e, 0xbb,
  0xd0, 0x83, 0x85, 0x3d, 0xb1, 0x0b, 0xec, 0xbd, 0x39, 0x3d, 0xdd, 0x3e,
  0xf1, 0x37, 0x9d, 0xbb, 0xf8, 0x30, 0xe6, 0xbd, 0x5d, 0x6a, 0x02, 0xbf,
  0xc6, 0x1e, 0x08, 0x3e, 0x9d, 0xd2, 0x2a, 0x3e, 0xaa, 0x20, 0x4f, 0xbe,
  0xce, 0x4d, 0x8d, 0xbd, 0x19, 0x64, 0x23, 0x3d, 0x87, 0xc9, 0x80, 0xbd,
  0xf5, 0x86, 0xd5, 0x3c, 0x6a, 0x88, 0xd6, 0xbd, 0xdd, 0x47, 0x95, 0x3e,
  0x7f, 0x1b, 0x3d, 0xbe, 0x35, 0xef, 0xde, 0xbe, 0xa5, 0xf8, 0xcc, 0xbc,
  0xa6, 0x78, 0xa9, 0xbe, 0xd0, 0x08, 0x6f, 0x3e, 0x1f, 0x29, 0x64, 0x3e,
  0x3a, 0xc9, 0x9d, 0xbd, 0xb7, 0x60, 0xcf, 0xbd, 0x87, 0x71, 0xe1, 0xba,
  0x90, 0x72, 0xc5, 0xbe, 0x6c, 0x89, 0x19, 0xbd, 0x85, 0x1b, 0xf3, 0xbe,
  0xba, 0x5d, 0x8e, 0x3d, 0x6d, 0xc3, 0x18, 0x3e, 0x1c, 0x67, 0x70, 0x3d,
  0x1b, 0x26, 0x92, 0x3d, 0x06, 0x17, 0xb8, 0xbd, 0x37, 0x27, 0x1a, 0xbe,
  0x34, 0x98, 0x7e, 0x3e, 0xcf, 0x54, 0xf6, 0x3c, 0xfb, 0x56, 0x5e, 0x3e,
  0x46, 0x04, 0xfa, 0xbd, 0x49, 0x6d, 0x89, 0xbd, 0xa2, 0xba, 0x11, 0xbc,
  0x20, 0x2c, 0x05, 0xbe, 0x48, 0x7a, 0x8d, 0x3c, 0x60, 0xc9, 0xcb, 0x3d,
  0x3e, 0xcc, 0x78, 0xbc, 0x73, 0x6d, 0x8c, 0xbd, 0x52, 0x6f, 0x9e, 0xbd,
  0x11, 0x8b, 0x40, 0xbd, 0x5c, 0x97, 0xd7, 0xbc, 0xee, 0xf4, 0x29, 0xbe,
  0x24, 0x54, 0x46, 0x3e, 0x3e, 0x69, 0x22, 0xbd, 0x3a, 0x11, 0x29, 0x3e,
  0xf0, 0x6d, 0xe1, 0xbd, 0x97, 0xcf, 0xd4, 0xbd, 0x23, 0x00, 0x93, 0x3c,
  0xd1, 0xc8, 0xc2, 0xbc, 0x6d, 0x5a, 0x84, 0xbc, 0x78, 0x24, 0xfa, 0x3c,
  0x38, 0x25, 0xdc, 0x3c, 0x82, 0xc8, 0x8f, 0x3b, 0x08, 0x37, 0x0a, 0xbe,
  0xde, 0x6e, 0x93, 0xbd, 0x54, 0x6c, 0xdb, 0xbd, 0xb5, 0x75, 0x91, 0x3d,
  0x2c, 0x4b, 0x4e, 0xbd, 0xa4, 0xbf, 0xaf, 0xbe, 0xc2, 0x99, 0x7c, 0xbe,
  0xa8, 0x19, 0x4e, 0x3d, 0x64, 0x47, 0xf1, 0x3e, 0xe5, 0x95, 0x86, 0x3d,
  0x59, 0x2d, 0x15, 0x3e, 0x22, 0xbe, 0xc8, 0xbc, 0x4d, 0x85, 0x4c, 0xbc,
  0x67, 0x3e, 0x54, 0xbd, 0x97, 0x10, 0xb5, 0xbe, 0x1a, 0xe2, 0x4c, 0x3d,
  0x0b, 0x14, 0x05, 0xbe, 0x2e, 0xb8, 0xa0, 0x3d, 0x53, 0xa3, 0x0d, 0xbe,
  0x9a, 0x64, 0x0f, 0x3e, 0xa2, 0x38, 0x09, 0x3e, 0x63, 0x94, 0xf1, 0xbd,
  0x9a, 0x1f, 0x82, 0xbe, 0x79, 0x7a, 0x90, 0xbd, 0x54, 0x42, 0x19, 0x3e,
  0x7d, 0xee, 0x51, 0x3d, 0xa4, 0x63, 0xfe, 0xbd, 0x65, 0x0d, 0x31, 0x3c,
  0x6e, 0x85, 0xd2, 0x3d, 0x57, 0xf5, 0x07, 0xbe, 0xa6, 0xa4, 0x2b, 0xbe,
  0xe5, 0xfb, 0x0e, 0x3e, 0x9a, 0xf5, 0xec, 0x3c, 0xa1, 0xff, 0xb7, 0x3d,
  0x16, 0xac, 0xb5, 0x3d, 0xa3, 0x79, 0x87, 0x3d, 0xca, 0x4e, 0x11, 0xbd,
  0x26, 0x47, 0x12, 0xbe, 0xe1, 0xe6, 0x11, 0xbe, 0xff, 0xb2, 0x7d, 0xbd,
  0xae, 0x0c, 0x8f, 0xbe, 0x77, 0xce, 0x33, 0xbe, 0xae, 0xc9, 0x5f, 0xbe,
  0x8c, 0xb1, 0xbe, 0xbe, 0x1b, 0x96, 0xaa, 0xbd, 0xea, 0x60, 0xac, 0xbd,
  0xf8, 0x5f, 0xd7, 0xbd, 0xf5, 0x67, 0x0c, 0x3f, 0xaa, 0xf6, 0x62, 0x3e,
  0xe3, 0x3a, 0x48, 0x3e, 0x5c, 0x52, 0x81, 0xbe, 0x07, 0x7b, 0x04, 0xbf,
  0x93, 0xc4, 0x05, 0x3e, 0x4e, 0xfc, 0xfb, 0xbd, 0x5c, 0xdf, 0x80, 0xbd,
  0x6c, 0xcb, 0x04, 0xbe, 0xb0, 0x18, 0x3f, 0xbc, 0xdb, 0x51, 0x45, 0xbd,
  0xd7, 0xa0, 0xae, 0xbe, 0x14, 0xa2, 0x19, 0xbe, 0xae, 0xdc, 0xb3, 0xbe,
  0x6a, 0x5f, 0xf6, 0xbd, 0xa9, 0x09, 0x21, 0xbd, 0x4c, 0xda, 0x07, 0xbe,
  0x65, 0xe7, 0x1a, 0x3b, 0x84, 0x87, 0xba, 0xbd, 0x11, 0x12, 0x83, 0xbc,
  0x76, 0x41, 0x87, 0x3e, 0x12, 0x6d, 0x70, 0xbe, 0x34, 0x86, 0xad, 0x3c,
  0xdd, 0x41, 0xab, 0xbe, 0x8b, 0xbb, 0x3e, 0xbe, 0xde, 0x90, 0xae, 0xbe,
  0x4d, 0x39, 0x26, 0xbd, 0x86, 0xd3, 0x0a, 0xbf, 0x42, 0x2a, 0x16, 0xbf,
  0x96, 0xdf, 0xa1, 0x3c, 0x21, 0x75, 0xa1, 0xbc, 0xf0, 0xa7, 0x5e, 0xbe,
  0xba, 0x34, 0x6c, 0x3e, 0xe8, 0xab, 0xd3, 0x3d, 0x68, 0x84, 0xf5, 0x3e,
  0x8e, 0x31, 0x1d, 0xbf, 0xdb, 0xc9, 0xfe, 0x3c, 0xfd, 0xe9, 0x23, 0xbe,
  0xe6, 0x99, 0x35, 0xbe, 0x34, 0x74, 0xb8, 0xbd, 0x87, 0x61, 0xa2, 0xbd,
  0x42, 0x39, 0x11, 0x3d, 0x78, 0x40, 0x63, 0x3c, 0x9a, 0x51, 0xa6, 0xbe,
  0x1b, 0xe6, 0xbf, 0x3e, 0xe5, 0xbd, 0x19, 0xbf, 0x2f, 0x3a, 0x6a, 0xbe,
  0xf5, 0xcb, 0x56, 0xbd, 0xb6, 0x35, 0x89, 0xbd, 0x15, 0x1d, 0x5f, 0x3e,
  0xe1, 0x02, 0x14, 0x3e, 0x62, 0xef, 0xa4, 0xbd, 0xf6, 0x06, 0xad, 0x3d,
  0x94, 0xab, 0xc2, 0x3e, 0x14, 0x50, 0xa8, 0x3d, 0x2a, 0xe9, 0xbb, 0x3e,
  0x00, 0xef, 0x64, 0xbe, 0x0e, 0x47, 0xec, 0xbd, 0x28, 0xe0, 0x22, 0x3e,
  0x7c, 0xf9, 0x28, 0x3e, 0xf9, 0xa0, 0x93, 0xbd, 0x4c, 0x55, 0x35, 0x3e,
  0x58, 0x78, 0x9d, 0xbe, 0x55, 0xaf, 0xf4, 0xbd, 0x7f, 0xa1, 0xa0, 0xbe,
  0xe8, 0x81, 0x90, 0xbe, 0x9b, 0x80, 0x22, 0xbd, 0x5c, 0x38, 0x84, 0xbe,
  0x49, 0xef, 0xc0, 0xbe, 0xa2, 0x01, 0x3e, 0x3e, 0x3c, 0x84, 0xa0, 0xbe,
  0xe4, 0x56, 0x17, 0xbe, 0x1d, 0x6e, 0x0f, 0xbe, 0x0c, 0x5c, 0x2a, 0xbd,
  0x5c, 0xb0, 0x68, 0x3d, 0xf0, 0xba, 0xae, 0xbe, 0xfb, 0x6d, 0x07, 0xbe,
  0x99, 0x36, 0x2f, 0x3e, 0x4d, 0x7a, 0x7b, 0x3c, 0xc2, 0x92, 0x1f, 0xbe,
  0x5d, 0xb4, 0x03, 0xbe, 0xc2, 0x7a, 0x80, 0x3e, 0xb0, 0x51, 0x8a, 0x3d,
  0x5c, 0x3a, 0x9c, 0xbe, 0xc0, 0x00, 0x63, 0x3d, 0x32, 0xbd, 0x4a, 0x3e,
  0xfb, 0x87, 0x07, 0x3e, 0x33, 0x37, 0xd2, 0x3c, 0x9a, 0xc0, 0xe0, 0xbd,
  0x5e, 0xb3, 0xb4, 0xbd, 0xe8, 0x27, 0xc5, 0x3e, 0xfb, 0x30, 0xae, 0x3e,
  0x8b, 0xec, 0x29, 0xbc, 0x16, 0x53, 0x4d, 0x3e, 0x1f, 0xd6, 0x30, 0xbe,
  0xfb, 0x0a, 0xd1, 0x3d, 0xef, 0xbd, 0x5e, 0xbe, 0x1c, 0x7e, 0x76, 0xbe,
  0xd4, 0x04, 0xb2, 0xbd, 0x30, 0xda, 0x84, 0xbd, 0x89, 0xa6, 0x98, 0xbe,
  0xe3, 0xa7, 0x6a, 0x3e, 0x8d, 0xec, 0x8e, 0xbe, 0xf8, 0xe8, 0x76, 0xbd,
  0xd2, 0xe4, 0xe5, 0xbd, 0xc1, 0xef, 0xfc, 0xbd, 0xd4, 0xf2, 0x6f, 0x3d,
  0x27, 0x5f, 0x0d, 0xbe, 0x92, 0xa4, 0x9f, 0xbe, 0x92, 0x4c, 0x1b, 0x3e,
  0x40, 0x03, 0x91, 0xbe, 0xa1, 0x00, 0xad, 0xbd, 0x6c, 0xb2, 0x15, 0x3d,
  0xfa, 0x88, 0xd7, 0xbb, 0x29, 0x35, 0x82, 0x3d, 0x16, 0x69, 0x57, 0xbe,
  0x9a, 0xa7, 0x38, 0xbd, 0x26, 0xde, 0xff, 0xff, 0x10, 0x00, 0x00, 0x00,
  0x0a, 0x00, 0x00, 0x00, 0x1c, 0x00, 0x00, 0x00, 0x38, 0x00, 0x00, 0x00,
  0x04, 0x00, 0x00, 0x00, 0x10, 0x00, 0x00, 0x00, 0x04, 0x00, 0x00, 0x00,
  0x01, 0x00, 0x00, 0x00, 0x08, 0x00, 0x00, 0x00, 0x1a, 0x00, 0x00, 0x00,
  0x73, 0x65, 0x71, 0x75, 0x65, 0x6e, 0x74, 0x69, 0x61, 0x6c, 0x2f, 0x63,
  0x6f, 0x6e, 0x76, 0x32, 0x64, 0x5f, 0x31, 0x2f, 0x43, 0x6f, 0x6e, 0x76,
  0x32, 0x44, 0x00, 0x00, 0x9c, 0xdd, 0xff, 0xff, 0xa6, 0xde, 0xff, 0xff,
  0x04, 0x00, 0x00, 0x00, 0x80, 0x01, 0x00, 0x00, 0xfa, 0xd8, 0xf3, 0xbe,
  0x58, 0xce, 0x99, 0xbd, 0xeb, 0xdc, 0x23, 0x3d, 0xfc, 0x28, 0x88, 0x3d,
  0x76, 0x9e, 0xd3, 0x3d, 0xef, 0xa1, 0xe7, 0x3c, 0x0c, 0x65, 0xce, 0x3e,
  0xb6, 0x04, 0x59, 0x3d, 0xe7, 0xd2, 0x5d, 0xbd, 0x62, 0x69, 0xa0, 0x3d,
  0x7b, 0x01, 0x45, 0xbc, 0xd6, 0xe0, 0xca, 0x3a, 0x6a, 0xe7, 0x70, 0x3b,
  0xd9, 0xc6, 0x21, 0x3e, 0xa4, 0xdd, 0x20, 0xbe, 0xff, 0x4b, 0x34, 0x3d,
  0x2e, 0x2e, 0x4f, 0x3d, 0x4b, 0xae, 0xa2, 0xbd, 0x3c, 0x91, 0x62, 0x3d,
  0x61, 0x7a, 0x7f, 0x3d, 0xa6, 0x8d, 0x73, 0xbd, 0x4f, 0x2f, 0x62, 0x3e,
  0x23, 0x3c, 0xcd, 0xbd, 0x6e, 0xcb, 0x00, 0x3e, 0xe4, 0xcb, 0x1b, 0xbd,
  0x8e, 0xf9, 0xcc, 0xbd, 0xd6, 0xbb, 0x62, 0x3e, 0xea, 0xc1, 0x8d, 0xbd,
  0x31, 0xfa, 0x53, 0x3c, 0xcd, 0x9f, 0xfa, 0x3d, 0xa7, 0xe9, 0xa4, 0xbd,
  0x6e, 0xe8, 0xb9, 0x3d, 0x8e, 0x2e, 0x24, 0x3d, 0xd2, 0x47, 0x61, 0xbd,
  0x33, 0x53, 0x0c, 0x3e, 0xb5, 0x8b, 0x62, 0x3d, 0xaa, 0x9e, 0x9f, 0x3d,
  0x8a, 0x6f, 0x98, 0xbc, 0x52, 0xa1, 0x80, 0xbd, 0x5c, 0x5f, 0x86, 0xbd,
  0x45, 0x89, 0x67, 0xbe, 0x28, 0x44, 0xaa, 0xbe, 0x0b, 0x1a, 0x9f, 0x3d,
  0x2e, 0xdc, 0xa9, 0x3e, 0x35, 0x56, 0x3c, 0x3e, 0x68, 0x95, 0x7a, 0x3d,
  0xca, 0xf7, 0x9a, 0x3d, 0x03, 0x8a, 0x9b, 0x3e, 0xbf, 0xfd, 0xe4, 0x3e,
  0x71, 0x4a, 0xf5, 0x3d, 0xa6, 0x51, 0xf3, 0x3d, 0x50, 0x2c, 0xff, 0xbe,
  0x74, 0xf5, 0x44, 0x3d, 0x9e, 0x45, 0x24, 0xbe, 0xfe, 0x08, 0x4d, 0xbd,
  0xbd, 0x1c, 0x2b, 0xbe, 0x1d, 0x51, 0x4a, 0x3e, 0x09, 0x17, 0x30, 0x3e,
  0x41, 0xa3, 0xb4, 0x3c, 0xbe, 0x4b, 0x52, 0xbe, 0x2a, 0xcd, 0x0a, 0x3d,
  0x50, 0x32, 0x05, 0xbd, 0xe1, 0xe1, 0x3c, 0xbd, 0x88, 0x78, 0xd6, 0x3e,
  0xc7, 0xcd, 0xc7, 0xbe, 0xfe, 0xac, 0x95, 0xbe, 0x57, 0xd5, 0x5f, 0xbe,
  0xba, 0xbf, 0x79, 0x3e, 0x02, 0x2b, 0x97, 0x3c, 0x7e, 0x34, 0x74, 0xbe,
  0xca, 0x55, 0x58, 0x3e, 0x93, 0x09, 0xb7, 0x3e, 0x76, 0x2c, 0xa0, 0xbd,
  0xae, 0x12, 0x21, 0x3e, 0xec, 0xf6, 0x7a, 0xbe, 0x72, 0x1b, 0x4b, 0x3c,
  0x52, 0x26, 0x55, 0xbd, 0x43, 0xf1, 0x43, 0xbc, 0x1f, 0x40, 0x86, 0x3d,
  0x15, 0x57, 0x19, 0xbe, 0x50, 0xf6, 0x5f, 0x3d, 0x08, 0x6b, 0x62, 0xbd,
  0x35, 0x41, 0x7f, 0xbd, 0x5a, 0x39, 0xf6, 0x3c, 0xa2, 0x8d, 0xbd, 0x3e,
  0x2c, 0x46, 0x44, 0x3e, 0x60, 0xa5, 0x30, 0xbd, 0x32, 0x18, 0x13, 0x3e,
  0x7b, 0x5c, 0x83, 0x3e, 0x44, 0xa1, 0x0e, 0x3e, 0x5c, 0xe7, 0x83, 0xbe,
  0xde, 0xca, 0x23, 0xbe, 0x9c, 0x57, 0x93, 0xbd, 0x73, 0xa7, 0x23, 0xbe,
  0x0b, 0xe8, 0x66, 0xbe, 0x49, 0x1e, 0x7e, 0xbd, 0xfe, 0xdf, 0xff, 0xff,
  0x10, 0x00, 0x00, 0x00, 0x09, 0x00, 0x00, 0x00, 0x1c, 0x00, 0x00, 0x00,
  0x38, 0x00, 0x00, 0x00, 0x04, 0x00, 0x00, 0x00, 0x08, 0x00, 0x00, 0x00,
  0x04, 0x00, 0x00, 0x00, 0x03, 0x00, 0x00, 0x00, 0x01, 0x00, 0x00, 0x00,
  0x18, 0x00, 0x00, 0x00, 0x73, 0x65, 0x71, 0x75, 0x65, 0x6e, 0x74, 0x69,
  0x61, 0x6c, 0x2f, 0x63, 0x6f, 0x6e, 0x76, 0x32, 0x64, 0x2f, 0x43, 0x6f,
  0x6e, 0x76, 0x32, 0x44, 0x00, 0x00, 0x00, 0x00, 0x74, 0xdf, 0xff, 0xff,
  0x7e, 0xe0, 0xff, 0xff, 0x04, 0x00, 0x00, 0x00, 0xc0, 0x00, 0x00, 0x00,
  0x69, 0x09, 0x01, 0xbe, 0x03, 0x5c, 0xc2, 0xbe, 0x71, 0x55, 0xb4, 0x3e,
  0xc2, 0x23, 0x08, 0x3e, 0x12, 0x73, 0x0f, 0xbd, 0x25, 0xc8, 0x8f, 0xbd,
  0x1a, 0x48, 0x57, 0x3e, 0x61, 0xda, 0xee, 0x3d, 0x07, 0x69, 0xbd, 0x3e,
  0x1e, 0x35, 0xab, 0x3e, 0xf1, 0x23, 0xf9, 0xbd, 0xb6, 0xad, 0x4d, 0x3d,
  0xfa, 0xa4, 0x62, 0x3e, 0x98, 0xd0, 0x7e, 0x3e, 0x2b, 0x87, 0x9e, 0xbe,
  0x9b, 0x89, 0xbb, 0xbe, 0xfa, 0xba, 0xd2, 0x3c, 0xe3, 0x19, 0xdb, 0xbe,
  0xc0, 0x8b, 0x85, 0x3e, 0x96, 0x4e, 0x5a, 0x3e, 0xe5, 0x7a, 0x7b, 0x3d,
  0x4a, 0xc8, 0x20, 0x3c, 0xd4, 0xd4, 0xd4, 0xbd, 0x66, 0xfa, 0x53, 0x3e,
  0x8d, 0xe4, 0x8f, 0x3e, 0x8c, 0xf6, 0x8c, 0x3e, 0x95, 0xc2, 0x31, 0xbd,
  0x7c, 0x3e, 0xa8, 0x3d, 0x6d, 0x08, 0x82, 0x3e, 0xcd, 0x26, 0x94, 0x3e,
  0x7a, 0x90, 0x83, 0xbe, 0x30, 0x82, 0xa7, 0xbe, 0x32, 0xd6, 0xc1, 0x3d,
  0x70, 0x42, 0xde, 0xbe, 0x4d, 0x78, 0x4c, 0x3e, 0x92, 0xa1, 0xbd, 0x3d,
  0xff, 0xac, 0xa9, 0x3d, 0xde, 0x1f, 0x05, 0xbd, 0x77, 0xd7, 0x26, 0x3e,
  0x16, 0xa2, 0x0c, 0x3e, 0xd4, 0x17, 0x92, 0x3e, 0x2a, 0x29, 0x02, 0x3e,
  0xbd, 0xf4, 0x3f, 0xbc, 0x2a, 0xbc, 0xdc, 0x3d, 0x9f, 0xc2, 0x90, 0x3e,
  0xf7, 0x62, 0x17, 0x3e, 0x98, 0xd9, 0x5c, 0xbe, 0x7d, 0x63, 0xd8, 0xbe,
  0x16, 0xe1, 0xff, 0xff, 0x10, 0x00, 0x00, 0x00, 0x08, 0x00, 0x00, 0x00,
  0x14, 0x00, 0x00, 0x00, 0x30, 0x00, 0x00, 0x00, 0x02, 0x00, 0x00, 0x00,
  0x03, 0x00, 0x00, 0x00, 0x10, 0x00, 0x00, 0x00, 0x19, 0x00, 0x00, 0x00,
  0x73, 0x65, 0x71, 0x75, 0x65, 0x6e, 0x74, 0x69, 0x61, 0x6c, 0x2f, 0x64,
  0x65, 0x6e, 0x73, 0x65, 0x5f, 0x31, 0x2f, 0x4d, 0x61, 0x74, 0x4d, 0x75,
  0x6c, 0x00, 0x00, 0x00, 0x84, 0xe0, 0xff, 0xff, 0x8e, 0xe1, 0xff, 0xff,
  0x04, 0x00, 0x00, 0x00, 0x00, 0x1c, 0x00, 0x00, 0xda, 0x54, 0x29, 0xbc,
  0x15, 0x22, 0x9b, 0x3e, 0x8c, 0x24, 0x97, 0x3e, 0xb2, 0x2e, 0x53, 0x3e,
  0x5a, 0xb7, 0x86, 0xbd, 0x4c, 0x96, 0x77, 0xbe, 0x53, 0x9d, 0x9d, 0x3e,
  0x6c, 0x0a, 0x33, 0xbd, 0x28, 0xba, 0x4e, 0xbd, 0x9c, 0x07, 0xd4, 0x3d,
  0x16, 0x88, 0x0b, 0xbe, 0x0e, 0xd5, 0x26, 0x3e, 0x5f, 0x03, 0x73, 0xbe,
  0x86, 0xe7, 0xa9, 0x3d, 0x26, 0x00, 0xad, 0xbd, 0x91, 0x2f, 0xbe, 0xbd,
  0x1a, 0xb2, 0x20, 0x3e, 0xa5, 0xf6, 0x57, 0x3c, 0xdb, 0x47, 0xd1, 0x3d,
  0x9d, 0xea, 0x70, 0x3d, 0x41, 0x22, 0xad, 0xbd, 0xcd, 0x14, 0xe0, 0x3d,
  0xed, 0x13, 0x22, 0x3e, 0xc5, 0xf0, 0xf3, 0x3b, 0xec, 0x14, 0x3a, 0xbe,
  0x8d, 0xac, 0x6c, 0x3e, 0x98, 0x9c, 0x2c, 0xbe, 0x3b, 0xde, 0x74, 0x3e,
  0x5f, 0xdf, 0x84, 0xbd, 0x4a, 0xda, 0x6a, 0x3e, 0xe9, 0x08, 0xa9, 0xbe,
  0xdf, 0xd7, 0x58, 0xbe, 0xd6, 0xf6, 0xb3, 0x3e, 0x38, 0x1e, 0x25, 0x3f,
  0xdb, 0x6d, 0x54, 0x3d, 0x8e, 0xfb, 0xe5, 0x3d, 0x0d, 0xb2, 0xba, 0x3d,
  0x5c, 0x36, 0xe9, 0x3d, 0xe1, 0x97, 0x39, 0x3e, 0xcf, 0x86, 0x08, 0xbe,
  0xb6, 0x65, 0xe7, 0xbb, 0x59, 0xda, 0x48, 0x3e, 0xa9, 0x9a, 0xf0, 0xbd,
  0x18, 0x19, 0x2c, 0x3e, 0x8b, 0x00, 0xe7, 0xbd, 0xe9, 0x34, 0x4a, 0x3e,
  0xb3, 0xfd, 0xc1, 0xbe, 0xa8, 0x12, 0x5e, 0xbe, 0x6f, 0x5c, 0x73, 0x3e,
  0x5d, 0x29, 0x8b, 0x3d, 0x5f, 0xbc, 0xb2, 0x3e, 0xb0, 0x06, 0xa9, 0x3d,
  0x51, 0x99, 0xde, 0x3c, 0x3e, 0x8f, 0x90, 0x3d, 0x4e, 0x36, 0x55, 0xbb,
  0xed, 0xd1, 0x89, 0x3a, 0x72, 0x4a, 0x83, 0xbb, 0x51, 0x98, 0x6a, 0x3e,
  0x51, 0xe1, 0x71, 0xbe, 0x9e, 0xa9, 0x32, 0x3e, 0xa1, 0x5c, 0xf5, 0x3d,
  0xdb, 0x3c, 0x94, 0x3b, 0x38, 0x60, 0x93, 0xbc, 0xaa, 0xe9, 0x23, 0x3e,
  0x6c, 0x8d, 0x70, 0x3e, 0x88, 0xc6, 0xed, 0x3e, 0xe8, 0xb8, 0x56, 0x3d,
  0x80, 0x3f, 0x21, 0x3d, 0x03, 0x34, 0xf1, 0x3d, 0x9a, 0x23, 0xe8, 0x3d,
  0xf2, 0x4d, 0xda, 0xbd, 0x86, 0x9e, 0xc7, 0xbd, 0x62, 0x91, 0xa8, 0xbe,
  0x35, 0x3b, 0x34, 0x3d, 0x28, 0xdb, 0xa4, 0xbe, 0x89, 0xa6, 0x85, 0x3e,
  0x60, 0x96, 0x1c, 0xbe, 0xb8, 0x9b, 0x46, 0xbe, 0x8b, 0x05, 0x4e, 0xbe,
  0xad, 0x9e, 0x24, 0xbe, 0x2b, 0x94, 0x0c, 0x3e, 0xd8, 0xa3, 0x45, 0x3e,
  0xf7, 0x0b, 0x18, 0x3e, 0x72, 0xf8, 0x4d, 0xbc, 0xcc, 0x95, 0x18, 0x3e,
  0x5f, 0x79, 0x13, 0x3d, 0x2b, 0xfd, 0x76, 0xbe, 0x20, 0x2e, 0xc6, 0x3e,
  0x54, 0x99, 0x06, 0xbe, 0x80, 0x06, 0x43, 0xbd, 0x1e, 0x99, 0xe1, 0xbd,
  0x2d, 0x53, 0xf4, 0x3d, 0x26, 0x42, 0x87, 0xbd, 0xf5, 0x81, 0xcd, 0xbd,
  0x89, 0xf3, 0x8f, 0xbe, 0xde, 0x4a, 0xc2, 0xbd, 0x8d, 0xb5, 0xb7, 0x3b,
  0xd9, 0xba, 0xc7, 0x3c, 0xee, 0x6a, 0xa6, 0x3d, 0x8a, 0xc1, 0xa1, 0xbd,
  0xb7, 0xc3, 0xb3, 0xbc, 0x1b, 0x67, 0x0e, 0xbd, 0xa0, 0xa4, 0x16, 0xbe,
  0xb1, 0xfb, 0x27, 0x3d, 0x22, 0x18, 0xae, 0xbe, 0x4d, 0x7c, 0xd6, 0x3d,
  0x9e, 0x2e, 0x3f, 0xbe, 0x2c, 0x51, 0x87, 0x3d, 0xf0, 0x24, 0x6c, 0xbd,
  0xd8, 0x97, 0x41, 0xbe, 0x6a, 0x62, 0xbd, 0xbe, 0x41, 0x9a, 0x7d, 0xbe,
  0xdc, 0xb1, 0x74, 0xbe, 0xfd, 0xc6, 0x1e, 0x3d, 0x7a, 0xcc, 0x3e, 0xbe,
  0xc3, 0x6d, 0xda, 0xbe, 0xbb, 0xd7, 0x00, 0x3e, 0xfc, 0xcb, 0x1b, 0x3e,
  0x93, 0x0d, 0xeb, 0xbd, 0x29, 0x2b, 0xae, 0xbe, 0xa1, 0xa7, 0x3b, 0xbb,
  0x59, 0xaa, 0xb5, 0xbe, 0xaa, 0xf0, 0xf4, 0xbd, 0x0d, 0x0b, 0xc9, 0x3d,
  0xde, 0xf9, 0xee, 0x3d, 0x70, 0x24, 0x37, 0xbe, 0xdd, 0xbd, 0x45, 0x3e,
  0x29, 0x42, 0x35, 0x3e, 0x38, 0x5e, 0x8a, 0x3d, 0xc2, 0x77, 0xda, 0xba,
  0xfa, 0x71, 0x9d, 0xbe, 0x0d, 0x9f, 0x5c, 0x3e, 0x5f, 0x48, 0x99, 0xbc,
  0xbb, 0xe1, 0xd5, 0xbc, 0x33, 0x7f, 0x53, 0x3e, 0xa9, 0x56, 0xb1, 0xbe,
  0xe1, 0x02, 0x3e, 0x3e, 0x4f, 0x17, 0x9e, 0xbe, 0xe4, 0xc3, 0x07, 0x3c,
  0x37, 0x60, 0x70, 0xbe, 0x3c, 0xd9, 0x41, 0x3e, 0x12, 0x1c, 0x56, 0x3d,
  0x3e, 0x32, 0x2a, 0x3d, 0xc2, 0xfc, 0xa8, 0x3d, 0x96, 0xa0, 0x21, 0x3d,
  0x76, 0x01, 0x29, 0xbd, 0x42, 0xc6, 0xec, 0xbe, 0x17, 0x73, 0xd5, 0x3c,
  0x33, 0x8b, 0x62, 0x3d, 0x83, 0x51, 0xcd, 0xbd, 0x10, 0x63, 0xec, 0xba,
  0x98, 0xfb, 0xc6, 0x3d, 0xae, 0xfb, 0xf6, 0x3e, 0xc7, 0xf9, 0x20, 0xbd,
  0x32, 0x70, 0x44, 0xbe, 0x6e, 0x36, 0x99, 0xbe, 0xa7, 0xcc, 0xad, 0x3e,
  0x1a, 0xd0, 0x90, 0x3e, 0xa8, 0xd3, 0xb6, 0x3e, 0x8a, 0xed, 0x1c, 0x3e,
  0x1c, 0x0c, 0xa5, 0xbd, 0xe9, 0xed, 0x59, 0x3e, 0x4e, 0x5e, 0xe6, 0xbe,
  0x89, 0x7d, 0x43, 0x3e, 0xc4, 0xce, 0x14, 0x3e, 0x55, 0xa1, 0x12, 0x3d,
  0xf4, 0x7a, 0x54, 0xbe, 0x0b, 0xf8, 0x95, 0x3d, 0xf0, 0xae, 0xae, 0x3e,
  0x1f, 0xcf, 0x21, 0x3e, 0x9d, 0xc2, 0x8f, 0xbd, 0x0c, 0xea, 0x2c, 0xbe,
  0x84, 0x9e, 0x3e, 0x3e, 0x66, 0x42, 0xa0, 0x3e, 0x3e, 0x0b, 0x22, 0x3c,
  0x5e, 0x5f, 0x75, 0xbb, 0x54, 0x87, 0x05, 0xbf, 0x36, 0xf1, 0x42, 0xbe,
  0xdf, 0xed, 0x11, 0xbe, 0x29, 0x9f, 0xdd, 0xbe, 0x48, 0x1e, 0x97, 0xbc,
  0x23, 0x06, 0x74, 0x3d, 0xa4, 0x09, 0x42, 0xbe, 0x95, 0xd3, 0x96, 0x3d,
  0x71, 0x63, 0x9f, 0x3e, 0x41, 0x7b, 0xce, 0xbd, 0xcb, 0x9a, 0xb0, 0xbc,
  0xed, 0x95, 0xdd, 0xbd, 0x69, 0x91, 0x8b, 0xbe, 0xee, 0x39, 0xc6, 0xbe,
  0x67, 0xc2, 0x96, 0x3e, 0x1b, 0x23, 0x33, 0x3e, 0x87, 0xb5, 0xc2, 0xbe,
  0xe9, 0xb9, 0x12, 0xbe, 0x16, 0x53, 0x80, 0xbd, 0x55, 0xcf, 0x99, 0xbe,
  0xf9, 0x7b, 0x1a, 0x3e, 0x6a, 0x4e, 0x18, 0xbe, 0x6e, 0xc0, 0x88, 0xbe,
  0x7b, 0x92, 0xfe, 0x3d, 0x0f, 0xfe, 0xf8, 0x3d, 0x1a, 0x12, 0xe4, 0xbd,
  0x75, 0xb4, 0x70, 0xbc, 0x27, 0x70, 0x54, 0xbe, 0xf5, 0xb0, 0xcc, 0xbe,
  0xfa, 0x4f, 0xb5, 0xbe, 0xbe, 0xe3, 0x76, 0x3d, 0xf3, 0x60, 0x99, 0x3d,
  0x08, 0xf4, 0xb6, 0x3c, 0x40, 0x12, 0x50, 0x3e, 0x00, 0x85, 0x43, 0xbe,
  0xfa, 0xb9, 0x00, 0xbd, 0x86, 0x1a, 0x01, 0x3e, 0x57, 0x20, 0x88, 0xbd,
  0x77, 0x93, 0xba, 0xbd, 0xb4, 0x38, 0x06, 0x3e, 0xbf, 0x63, 0x0b, 0x3e,
  0x7a, 0xe1, 0x85, 0xbe, 0xcb, 0x6e, 0x10, 0x3d, 0x36, 0x56, 0x28, 0x3d,
  0x4e, 0x04, 0x13, 0x3c, 0x1d, 0x28, 0x79, 0xbe, 0x26, 0x4f, 0x19, 0x3e,
  0x92, 0xfa, 0x62, 0xbd, 0x2e, 0x95, 0xa3, 0xbe, 0x31, 0x6d, 0x6f, 0xbe,
  0xad, 0xff, 0x8b, 0xbe, 0x60, 0x1c, 0xd5, 0xbe, 0x65, 0x22, 0x1f, 0xbd,
  0x61, 0xcc, 0x1b, 0xbe, 0xdb, 0x40, 0xce, 0xbd, 0x4a, 0x08, 0x85, 0xbe,
  0x98, 0x03, 0x59, 0x3d, 0xfc, 0xab, 0x83, 0xbe, 0x57, 0xc5, 0x29, 0xbd,
  0xe9, 0xf2, 0x4c, 0xbe, 0xec, 0x69, 0xfa, 0xbd, 0x76, 0x83, 0x2a, 0xbe,
  0x08, 0xa2, 0xb6, 0x3e, 0x78, 0x54, 0x9c, 0x3d, 0x3d, 0x17, 0xb8, 0x3b,
  0xaa, 0x29, 0x86, 0xbd, 0xad, 0x14, 0x35, 0xbe, 0x3b, 0xa3, 0xff, 0xbc,
  0x4b, 0x2c, 0xda, 0x3c, 0xc4, 0x58, 0x43, 0xbe, 0x86, 0x9e, 0x2c, 0xbe,
  0xdc, 0x0a, 0xb5, 0x3a, 0x85, 0x54, 0x24, 0x3e, 0x5c, 0x3d, 0xa2, 0xbd,
  0x73, 0x58, 0x8f, 0x3d, 0xbb, 0x85, 0xed, 0xbc, 0x0b, 0x99, 0xbb, 0x3e,
  0x59, 0x1a, 0x8b, 0x3d, 0x3d, 0x30, 0x92, 0x3e, 0x57, 0x76, 0x40, 0x3e,
  0xdf, 0x6f, 0xd5, 0xbc, 0x95, 0x5c, 0xde, 0x3d, 0xcf, 0x7f, 0xc0, 0xbe,
  0x60, 0x0e, 0x48, 0x3d, 0x99, 0xa9, 0xe8, 0xbd, 0x56, 0x67, 0x83, 0x3d,
  0xe8, 0x8c, 0x38, 0xbd, 0x14, 0x5f, 0xa0, 0xbd, 0x1b, 0x1a, 0xae, 0x3e,
  0xee, 0x82, 0x87, 0x3d, 0x93, 0xf1, 0x10, 0xbe, 0xfd, 0xbd, 0x39, 0xbe,
  0xca, 0x79, 0x94, 0x3d, 0x46, 0xa3, 0xa8, 0x3d, 0x3b, 0x7e, 0x35, 0x3e,
  0x72, 0xf2, 0x64, 0x3e, 0xe6, 0x2e, 0x37, 0xbe, 0x92, 0xba, 0x41, 0xbc,
  0xb5, 0xde, 0xaa, 0xbd, 0x1b, 0x68, 0x31, 0x3e, 0xb9, 0x0a, 0xc1, 0x3d,
  0x71, 0xf5, 0x94, 0x3e, 0xfa, 0xd8, 0x69, 0xbd, 0x2a, 0x9a, 0xa7, 0xbd,
  0x13, 0x75, 0x68, 0x3e, 0x5c, 0x9e, 0xa9, 0x3d, 0x1c, 0xb0, 0xaf, 0xbd,
  0x12, 0xf5, 0x98, 0x3d, 0xe7, 0x90, 0xe4, 0xbd, 0xa4, 0x24, 0x23, 0x3e,
  0x0d, 0x9f, 0x59, 0x3e, 0xd2, 0x85, 0x02, 0x3e, 0x57, 0xc4, 0x46, 0xbe,
  0x8c, 0xfc, 0x81, 0xbc, 0x2c, 0x22, 0x82, 0xba, 0x4e, 0x60, 0xc5, 0xbd,
  0xed, 0x59, 0x48, 0x3c, 0xe3, 0xdd, 0x25, 0x3e, 0xbf, 0x32, 0x02, 0xbc,
  0x5e, 0x08, 0xdf, 0xbc, 0xb8, 0x78, 0x7c, 0x3d, 0xdf, 0xff, 0x1d, 0x3d,
  0xf5, 0x48, 0x2a, 0xbc, 0xe9, 0x95, 0x7f, 0xbe, 0x69, 0x91, 0xb5, 0xbd,
  0x9c, 0xa5, 0x47, 0x3e, 0x83, 0xad, 0x9d, 0x3e, 0xfd, 0x10, 0xe4, 0x3e,
  0xf3, 0x2e, 0x1d, 0xbe, 0x6b, 0x6d, 0xb4, 0xbd, 0x96, 0x23, 0xd3, 0xbc,
  0x70, 0xd6, 0x66, 0x3d, 0xe1, 0xa8, 0xab, 0x3d, 0xc4, 0x3b, 0xa6, 0xbd,
  0x9e, 0xa8, 0x8f, 0xbd, 0x56, 0x62, 0x22, 0xba, 0xa9, 0x27, 0x22, 0x3d,
  0xf4, 0x68, 0x11, 0xbe, 0x31, 0x7e, 0xa0, 0x3d, 0x50, 0x27, 0xa4, 0xbe,
  0x73, 0x74, 0x94, 0x3d, 0xc5, 0x5d, 0xc8, 0x3c, 0x10, 0x4d, 0x87, 0x3e,
  0x8f, 0xe4, 0xe8, 0xbd, 0x97, 0x3b, 0x1e, 0xbe, 0x50, 0x69, 0x80, 0x3c,
  0xa8, 0x03, 0xe6, 0x3b, 0x0a, 0x46, 0x41, 0xbd, 0x65, 0xae, 0x68, 0xbe,
  0x98, 0x13, 0x32, 0xbd, 0x11, 0x14, 0x2a, 0x3d, 0xa4, 0x46, 0x14, 0xbd,
  0x05, 0x06, 0xd4, 0xbc, 0xe6, 0xdd, 0xaf, 0xbe, 0xfd, 0x81, 0xac, 0x3b,
  0x59, 0xda, 0x63, 0xbd, 0xea, 0x30, 0xa8, 0xbc, 0x8e, 0x3f, 0x45, 0x3d,
  0x23, 0x27, 0x15, 0xbf, 0xee, 0x28, 0x85, 0xbe, 0xe6, 0xed, 0x06, 0xbe,
  0x6c, 0xe5, 0x34, 0xbe, 0x6e, 0x80, 0x1e, 0xbe, 0x68, 0xa9, 0x60, 0xbc,
  0xa4, 0xa7, 0x03, 0xbe, 0x91, 0x47, 0x77, 0xbe, 0x51, 0xf8, 0xb0, 0xbd,
  0xac, 0x40, 0xa3, 0x3d, 0xc2, 0x46, 0x61, 0xbe, 0xc0, 0x30, 0x34, 0xbe,
  0xfe, 0xba, 0xc3, 0xbe, 0x42, 0x9d, 0x01, 0xbe, 0x44, 0xf5, 0xd5, 0x3c,
  0xce, 0x9b, 0x6b, 0xbb, 0x90, 0x5b, 0x36, 0x3e, 0xc1, 0xaa, 0xc8, 0x3d,
  0xea, 0x06, 0xc0, 0xbd, 0x4b, 0x54, 0xd3, 0xbd, 0x8f, 0x56, 0x2f, 0xbd,
  0x15, 0x77, 0x5d, 0x3d, 0x27, 0xb0, 0x5b, 0xbe, 0xb9, 0xeb, 0x0a, 0xbc,
  0x4b, 0xed, 0xc7, 0xbd, 0x6d, 0x65, 0xd5, 0xbc, 0x09, 0x03, 0xbf, 0x3c,
  0x9a, 0xab, 0xb9, 0xbc, 0xe8, 0xec, 0x56, 0xbe, 0x8d, 0xf9, 0x09, 0xbe,
  0x85, 0x11, 0xb6, 0xbd, 0xc1, 0x5b, 0x0e, 0x3c, 0xcf, 0x3d, 0x16, 0xbe,
  0x32, 0x60, 0xbc, 0xbc, 0x69, 0x7b, 0x37, 0xbd, 0x16, 0x66, 0x05, 0x3e,
  0x1f, 0x8b, 0xc7, 0x3d, 0x90, 0x7d, 0x36, 0xbe, 0xcb, 0xbc, 0x66, 0xbe,
  0x09, 0xca, 0xf1, 0xbd, 0xb5, 0x97, 0xf7, 0xbd, 0x64, 0x2f, 0xa2, 0xbb,
  0x80, 0x13, 0x43, 0xbe, 0x6d, 0xfe, 0x5d, 0xbe, 0x65, 0xfd, 0x8c, 0xbe,
  0x0c, 0x57, 0x24, 0xbc, 0xd8, 0x40, 0x22, 0xbe, 0x55, 0x36, 0xdf, 0x3d,
  0xca, 0x7b, 0x54, 0xbe, 0xfa, 0x61, 0x09, 0x3e, 0x36, 0xdb, 0x84, 0xbe,
  0x7a, 0xf6, 0xed, 0xbd, 0x36, 0x0d, 0x63, 0xbd, 0xa6, 0x6f, 0x7a, 0xbe,
  0x52, 0xde, 0xb5, 0xbe, 0x88, 0xf2, 0xd2, 0xbd, 0xf0, 0x1c, 0x10, 0x3e,
  0xac, 0xba, 0x06, 0xbc, 0x3b, 0xca, 0xa4, 0xbe, 0x7f, 0x6d, 0x38, 0xbe,
  0xef, 0x87, 0xe6, 0xbd, 0xc0, 0x24, 0x80, 0xbc, 0xe7, 0xf4, 0xe5, 0x3b,
  0xb4, 0x92, 0x68, 0xbc, 0xf6, 0xe4, 0x81, 0xbb, 0x31, 0x3c, 0x61, 0x3d,
  0xe4, 0x75, 0xb5, 0x3d, 0x74, 0xfa, 0xd6, 0xbc, 0xcb, 0x1c, 0x5d, 0xbe,
  0x57, 0xaf, 0x8f, 0x3d, 0xbc, 0x09, 0x90, 0xbe, 0xde, 0x39, 0x2b, 0xbe,
  0xd9, 0x15, 0x99, 0x3e, 0x94, 0x2d, 0x02, 0xbe, 0x34, 0xc0, 0xbe, 0x3d,
  0xb2, 0x50, 0xd0, 0x3d, 0x90, 0x4d, 0xb9, 0xbd, 0x2c, 0xa1, 0x36, 0xbd,
  0xdd, 0xdc, 0x91, 0x3e, 0xaa, 0xb9, 0x89, 0x3e, 0xe1, 0x8f, 0x26, 0xb9,
  0xab, 0x9c, 0x51, 0xbe, 0xd2, 0x96, 0x00, 0x3e, 0xad, 0xac, 0x73, 0xbd,
  0x80, 0xc1, 0x07, 0xbe, 0x18, 0x39, 0xc2, 0xbd, 0xa1, 0xcf, 0x46, 0xbe,
  0xf3, 0x5c, 0x69, 0x3d, 0xa7, 0x09, 0xa3, 0x3e, 0x2d, 0x11, 0x1e, 0xbe,
  0x54, 0xc3, 0xd5, 0x3c, 0xb1, 0x26, 0x9c, 0x3e, 0xa6, 0x10, 0xa1, 0xbd,
  0xcf, 0x2f, 0xe1, 0x3d, 0xc9, 0x3b, 0xef, 0x3e, 0x1c, 0xee, 0xa7, 0x3e,
  0x3c, 0xa0, 0x37, 0xbe, 0x57, 0xcf, 0xd0, 0x3d, 0x22, 0xc6, 0x1f, 0xbc,
  0xa2, 0x1e, 0x92, 0xbd, 0xce, 0x22, 0x0c, 0x3e, 0xbf, 0xc1, 0xde, 0xbd,
  0x0b, 0xd8, 0xf7, 0xbc, 0x14, 0xa4, 0xe9, 0xbd, 0x2a, 0xdd, 0xd9, 0x3e,
  0x3b, 0x5d, 0x95, 0xbe, 0xd1, 0xce, 0x3b, 0x3e, 0x97, 0x10, 0x93, 0x3c,
  0x5d, 0x99, 0x08, 0xbe, 0x1a, 0xfc, 0xa9, 0x3c, 0x51, 0xeb, 0x81, 0x3d,
  0xca, 0x63, 0x67, 0x3e, 0x60, 0x69, 0xde, 0xbc, 0x46, 0x08, 0xb8, 0x3c,
  0x76, 0x64, 0x76, 0xbd, 0x83, 0xc2, 0xaf, 0x3d, 0x6d, 0x9e, 0x36, 0x3e,
  0x6a, 0xea, 0xe3, 0x3d, 0x3f, 0xb7, 0x79, 0xbd, 0x59, 0x93, 0x36, 0xbe,
  0xa2, 0x81, 0x19, 0x3c, 0xa2, 0xd5, 0x2e, 0x3d, 0x47, 0x81, 0x15, 0xbe,
  0x41, 0xbc, 0x89, 0x3d, 0x2a, 0x8a, 0x18, 0x3d, 0x0f, 0x3a, 0x03, 0x3e,
  0x82, 0xc3, 0x87, 0x3d, 0x5d, 0x5a, 0xa2, 0x3d, 0xec, 0x3b, 0xc5, 0xbd,
  0xf2, 0x46, 0xa3, 0xbe, 0xf5, 0x0b, 0xb9, 0x3d, 0x88, 0x1e, 0x38, 0x3e,
  0xcd, 0x73, 0x42, 0x3e, 0xf9, 0x28, 0xa5, 0x3c, 0x70, 0xda, 0x9d, 0xbe,
  0xf7, 0xa1, 0x52, 0x3d, 0x9a, 0xca, 0x14, 0x3e, 0xd4, 0x9f, 0x11, 0x3e,
  0x13, 0x5f, 0x07, 0xbe, 0x4c, 0x89, 0xd5, 0x3d, 0x68, 0xed, 0x4f, 0x3d,
  0x88, 0x7d, 0x8c, 0x3e, 0x08, 0x94, 0x29, 0x3e, 0x5c, 0xd0, 0xd4, 0x3c,
  0xd6, 0x77, 0x07, 0xbf, 0x29, 0x4f, 0xb5, 0xbe, 0x60, 0x96, 0xd1, 0x3d,
  0x20, 0x4e, 0x01, 0x3f, 0xb1, 0xb7, 0x53, 0x3d, 0xd9, 0xf8, 0xcd, 0x3d,
  0xf5, 0x8a, 0x22, 0xbe, 0x1e, 0x2c, 0x2c, 0x3e, 0xdd, 0xab, 0x78, 0x3e,
  0xbd, 0xdd, 0x84, 0x3d, 0x2b, 0x54, 0xe5, 0xbd, 0x65, 0xf6, 0xaa, 0x3d,
  0x30, 0xf1, 0xa2, 0x3d, 0xe4, 0xae, 0xd2, 0x3e, 0xa4, 0x84, 0xdc, 0x3d,
  0x92, 0xcc, 0x1b, 0x3e, 0xdf, 0x66, 0xf9, 0xbe, 0xb3, 0xb0, 0xc4, 0xbd,
  0xb0, 0x24, 0x58, 0x3e, 0x00, 0x3a, 0x91, 0xbd, 0xbc, 0xde, 0x1e, 0x3e,
  0xd0, 0x04, 0x0c, 0x3d, 0xd2, 0xe7, 0xd6, 0xbd, 0x2c, 0x16, 0xc4, 0x3d,
  0x4c, 0x3e, 0x8d, 0xbc, 0x33, 0x41, 0x4b, 0xbc, 0x74, 0x71, 0x90, 0xbd,
  0xbb, 0x1d, 0x83, 0x3e, 0x80, 0x96, 0x50, 0x3c, 0x2f, 0x6a, 0xab, 0x3e,
  0x1e, 0xca, 0x2c, 0x3e, 0x97, 0x34, 0xb3, 0x3e, 0xa5, 0x8a, 0xe4, 0xbd,
  0x99, 0x97, 0x47, 0x3d, 0x6e, 0x60, 0xb3, 0x3e, 0x56, 0xa1, 0x09, 0x3f,
  0x54, 0xbb, 0x51, 0x3e, 0xcc, 0x5a, 0x6a, 0x3d, 0x4c, 0x01, 0xe6, 0xbd,
  0x44, 0x89, 0x73, 0x3b, 0x1d, 0xf7, 0xe0, 0xbe, 0xb9, 0xf6, 0x84, 0xbd,
  0xc5, 0x2d, 0x5e, 0xbe, 0xc9, 0x91, 0xa3, 0xbd, 0x29, 0x41, 0x65, 0x3d,
  0x35, 0x77, 0x63, 0x3e, 0x3c, 0xff, 0xc4, 0xbd, 0x0a, 0xc2, 0xd6, 0xbd,
  0x64, 0xf4, 0xcc, 0xbe, 0x17, 0x52, 0xeb, 0xbe, 0x90, 0x3b, 0x85, 0x3e,
  0x3b, 0x09, 0x74, 0x3c, 0xaf, 0xda, 0xf5, 0x3c, 0xf3, 0x04, 0x6d, 0x3d,
  0x17, 0xfb, 0x4c, 0xbe, 0x39, 0x53, 0xa4, 0x3d, 0x9a, 0x1f, 0xc6, 0xbe,
  0x1d, 0xcb, 0xc3, 0x3d, 0x12, 0x82, 0x9c, 0xbe, 0xd7, 0xf1, 0x59, 0x3c,
  0x13, 0xa5, 0xde, 0x3c, 0xf3, 0xe6, 0x06, 0x3e, 0x3e, 0x27, 0x1f, 0x3d,
  0x94, 0xaa, 0xb6, 0xbc, 0xcb, 0x9e, 0xa6, 0xbe, 0xc6, 0xee, 0x3f, 0xbe,
  0xf6, 0x9d, 0xc6, 0xbd, 0xef, 0x19, 0x03, 0x3c, 0x0e, 0x7b, 0xac, 0x3c,
  0xd7, 0xc1, 0x8e, 0xbc, 0xb7, 0xed, 0x4d, 0xbe, 0xbd, 0x24, 0x1a, 0x3d,
  0x81, 0x5c, 0x99, 0xbd, 0xfa, 0x95, 0xa6, 0x3d, 0x5c, 0x40, 0xa3, 0xbe,
  0x86, 0x8f, 0x27, 0x3e, 0xec, 0x3c, 0x24, 0x3d, 0x4d, 0xcf, 0x79, 0x3e,
  0xa3, 0x5b, 0xa0, 0xbc, 0x5e, 0x15, 0x10, 0xbd, 0xbe, 0xb7, 0x09, 0xbe,
  0x5e, 0xee, 0x23, 0xbe, 0x62, 0x8b, 0x38, 0x3e, 0xcc, 0xb2, 0xae, 0xbd,
  0x58, 0x1d, 0x97, 0xbd, 0x46, 0x78, 0x09, 0x3e, 0x13, 0x01, 0x95, 0xbd,
  0x0c, 0x1b, 0x7f, 0x3d, 0xb7, 0xb5, 0x03, 0x3d, 0xc5, 0xf4, 0xf0, 0x3d,
  0x0c, 0x3b, 0xb2, 0xbc, 0x61, 0xc3, 0x85, 0x3e, 0xe9, 0x16, 0x9c, 0x3d,
  0x0e, 0x65, 0x6f, 0xbd, 0x3f, 0x3f, 0x97, 0x3e, 0x38, 0xba, 0xef, 0x3d,
  0x65, 0xf9, 0x91, 0xbe, 0x63, 0xbf, 0x91, 0xbe, 0x25, 0x5e, 0x89, 0xbe,
  0x86, 0x02, 0x4e, 0xbc, 0xc3, 0xb0, 0x4e, 0xbd, 0x40, 0x7d, 0xae, 0xbd,
  0x65, 0xf2, 0x8c, 0xbb, 0xcd, 0x83, 0x23, 0xbd, 0xb1, 0x85, 0xcd, 0xbe,
  0xa8, 0x47, 0xee, 0xbc, 0xba, 0x81, 0xfc, 0xbe, 0x9f, 0x64, 0xe0, 0x3d,
  0x03, 0xe5, 0xb6, 0xbc, 0x77, 0xdb, 0x8a, 0xbd, 0x71, 0x81, 0x86, 0xbe,
  0x41, 0xba, 0x0f, 0xbe, 0xb7, 0xf7, 0xc4, 0xbd, 0xe7, 0xc3, 0x31, 0xbe,
  0x23, 0x1f, 0xa4, 0xbe, 0xd5, 0x0f, 0x69, 0x3e, 0x72, 0x6f, 0x62, 0x3d,
  0x2e, 0xea, 0x3d, 0xbe, 0xf5, 0x92, 0x3f, 0xbe, 0xf0, 0x9d, 0x16, 0x3e,
  0x75, 0x5a, 0x8d, 0xbe, 0xce, 0x73, 0xec, 0xbd, 0xab, 0x2b, 0xb3, 0xbe,
  0xc5, 0xbf, 0x74, 0xbe, 0x9f, 0x0d, 0x2c, 0x3d, 0x49, 0xef, 0x2f, 0x3d,
  0x58, 0xa6, 0x81, 0xbd, 0x2d, 0x3d, 0x88, 0xbe, 0x9b, 0x85, 0xde, 0xbd,
  0xfd, 0xcc, 0x33, 0xbd, 0x59, 0x82, 0xd8, 0xbe, 0x5f, 0x5c, 0x3b, 0xbd,
  0x8d, 0x81, 0x4b, 0xbe, 0x9d, 0x68, 0x83, 0xbe, 0xfc, 0xca, 0x08, 0xbf,
  0xce, 0x3e, 0x66, 0xbe, 0x33, 0x9d, 0xb8, 0xbc, 0xcc, 0x99, 0xbb, 0xbd,
  0xf2, 0xea, 0x26, 0xbf, 0x6a, 0xba, 0x19, 0xbe, 0x1b, 0x78, 0x64, 0x3c,
  0xc7, 0xe6, 0xbe, 0xbd, 0x88, 0x75, 0x54, 0xbe, 0x58, 0x2f, 0x70, 0xbc,
  0x8c, 0xed, 0x57, 0xbd, 0x45, 0xc1, 0x06, 0x3e, 0xad, 0x49, 0x2b, 0xbe,
  0x1d, 0xb4, 0xe0, 0x3e, 0xbd, 0x64, 0x42, 0x3d, 0x61, 0xbb, 0x35, 0xbd,
  0xbe, 0xa3, 0x12, 0xbf, 0x23, 0x5d, 0x29, 0xbd, 0xe9, 0x60, 0xb7, 0x3e,
  0xc3, 0x1c, 0x4b, 0xbd, 0x15, 0xaf, 0xe3, 0xbc, 0xe5, 0x85, 0xb9, 0xbd,
  0x30, 0x4b, 0x62, 0xb8, 0x01, 0x30, 0xd0, 0xbd, 0x90, 0x3b, 0x77, 0x3e,
  0xc6, 0x53, 0x81, 0x3e, 0x07, 0x3e, 0x7c, 0xbe, 0xf2, 0x7a, 0xbc, 0xbd,
  0xf2, 0x85, 0x84, 0x3e, 0x6c, 0xbf, 0x0a, 0x3e, 0x7a, 0xe2, 0x01, 0x3d,
  0x48, 0x4b, 0x7c, 0x3d, 0x21, 0x16, 0x92, 0xbe, 0x00, 0x99, 0x9e, 0x3d,
  0xba, 0x02, 0xa9, 0x3c, 0xc6, 0xaf, 0xde, 0xbd, 0x73, 0x82, 0x26, 0xbd,
  0x99, 0xdc, 0xce, 0x3e, 0xdd, 0x6d, 0xe6, 0x3b, 0x86, 0x81, 0x83, 0xbd,
  0xb2, 0x8c, 0xbb, 0x3e, 0x57, 0x4f, 0xb5, 0x3e, 0x08, 0xbb, 0x2d, 0xbe,
  0x0d, 0xb1, 0x91, 0xbc, 0x42, 0x9d, 0xc6, 0x3d, 0xba, 0xe2, 0x41, 0xbe,
  0xc1, 0x25, 0x87, 0x3d, 0x6a, 0xbc, 0x01, 0x3e, 0x77, 0x01, 0xf1, 0xbb,
  0x11, 0x51, 0x72, 0x3d, 0x83, 0x59, 0xfb, 0x3e, 0xa8, 0xf4, 0x16, 0xbe,
  0xfb, 0x6b, 0x76, 0xb9, 0xf8, 0x8d, 0xc2, 0x3d, 0xbb, 0x2c, 0xf3, 0x3b,
  0x6b, 0x89, 0x5e, 0x3c, 0x01, 0xd7, 0x43, 0x3e, 0x6d, 0x23, 0xf6, 0x3d,
  0x4a, 0x4e, 0x21, 0xbe, 0xc6, 0xcb, 0xd4, 0xbd, 0x35, 0xd3, 0x19, 0xbe,
  0x2b, 0xb8, 0x08, 0x3e, 0x48, 0x6c, 0x15, 0xbe, 0x29, 0x59, 0x09, 0xbe,
  0xc2, 0x8e, 0x21, 0x3c, 0xac, 0xb9, 0x68, 0x3d, 0xb0, 0x5f, 0x28, 0x3c,
  0x8c, 0x6a, 0x7c, 0xbd, 0x44, 0x23, 0x04, 0xbe, 0x59, 0xc7, 0x15, 0xbe,
  0x61, 0x23, 0x5a, 0xbd, 0x78, 0xec, 0x3f, 0xbe, 0xb7, 0x27, 0xa6, 0x3b,
  0xf7, 0xc1, 0x94, 0xbe, 0x59, 0xc1, 0xa0, 0x3e, 0xe8, 0x31, 0x6c, 0x3d,
  0xf3, 0x3f, 0x21, 0xbe, 0x8b, 0x42, 0xee, 0x3d, 0xdb, 0x16, 0xb1, 0xbd,
  0xff, 0xc3, 0x35, 0x3d, 0x3d, 0x11, 0x35, 0x3d, 0x26, 0xec, 0x4c, 0xbe,
  0x8a, 0x37, 0xf1, 0x3a, 0xa4, 0x7a, 0x29, 0x3e, 0xe6, 0xc4, 0xca, 0xbd,
  0x2d, 0x0d, 0xd4, 0x3d, 0x73, 0xfe, 0x5f, 0xbe, 0xa8, 0x0d, 0x3b, 0x3c,
  0x42, 0x26, 0x77, 0xbe, 0x82, 0x88, 0x5d, 0x3e, 0xe4, 0x28, 0xe9, 0xbc,
  0x78, 0xe8, 0x24, 0xbe, 0x9a, 0x0f, 0x9a, 0x3e, 0x8d, 0x60, 0x40, 0x3e,
  0xf0, 0x12, 0x35, 0xbe, 0xb4, 0xa5, 0x16, 0xbe, 0x9c, 0x7a, 0x47, 0xbe,
  0xed, 0x33, 0xd9, 0xbd, 0x42, 0xca, 0xa8, 0xbc, 0x11, 0xaf, 0x25, 0xbe,
  0x29, 0xd2, 0xb8, 0x3e, 0x2c, 0x6c, 0x68, 0x3e, 0x3c, 0xe3, 0xc2, 0xbd,
  0xf0, 0x30, 0x6e, 0xbe, 0xa5, 0x4a, 0xdb, 0xbc, 0x43, 0x13, 0x96, 0x3e,
  0x6a, 0x67, 0xb6, 0xbd, 0xd8, 0x9c, 0x76, 0x3c, 0xd7, 0x43, 0x07, 0xbd,
  0x67, 0xa5, 0xa9, 0x3d, 0x93, 0x05, 0x20, 0xbe, 0x91, 0x9f, 0x55, 0xbe,
  0x9d, 0x61, 0x55, 0xbd, 0xff, 0xe6, 0xee, 0x3d, 0xb7, 0xa4, 0x05, 0x3e,
  0x02, 0xfd, 0xa0, 0xbd, 0xc3, 0x8d, 0xd1, 0x3c, 0x6f, 0xca, 0xe8, 0xbb,
  0x6a, 0x7c, 0x98, 0xbe, 0x57, 0x31, 0x0c, 0x3e, 0xb4, 0x9f, 0xa9, 0xbd,
  0x5c, 0xaf, 0xfe, 0x3d, 0x3c, 0xcc, 0x92, 0x3d, 0xdf, 0x08, 0x62, 0x3e,
  0xef, 0x88, 0x11, 0xbe, 0x27, 0x08, 0x2d, 0x3e, 0x73, 0x5c, 0x48, 0x3d,
  0xc8, 0xaa, 0x5d, 0x3d, 0xe1, 0x41, 0x3c, 0x3e, 0xe7, 0x7d, 0x8b, 0x3e,
  0x1b, 0xdf, 0x3a, 0xbe, 0x59, 0xec, 0x7a, 0x3d, 0x3e, 0x8c, 0x59, 0xbc,
  0xab, 0xfb, 0x95, 0x3d, 0xb6, 0x13, 0x18, 0xbe, 0xeb, 0x33, 0xd8, 0xbc,
  0xec, 0xa4, 0x38, 0xbd, 0xf4, 0x07, 0x64, 0xbe, 0xec, 0x0b, 0xa6, 0x3e,
  0x1f, 0xee, 0x69, 0x3e, 0x95, 0x8f, 0x19, 0x3e, 0x0c, 0x0d, 0xcd, 0x3d,
  0x8d, 0x29, 0x46, 0x3e, 0x22, 0x0a, 0xc4, 0x3c, 0xed, 0xa2, 0xb2, 0xbd,
  0xf4, 0x80, 0x06, 0xbe, 0xaa, 0xf2, 0x1f, 0xbe, 0xa6, 0xcf, 0xe1, 0x3d,
  0x80, 0xf4, 0x08, 0xbe, 0xff, 0x04, 0x81, 0x3c, 0x33, 0x7d, 0xe9, 0xbd,
  0x53, 0xc4, 0x20, 0xbc, 0xc2, 0xa4, 0xf0, 0x3d, 0x65, 0xf8, 0xe2, 0xbd,
  0xff, 0x3f, 0xc2, 0x3e, 0x85, 0x93, 0x98, 0x3e, 0x9a, 0xb6, 0x50, 0xbd,
  0xb7, 0x98, 0xc0, 0x3d, 0x73, 0x9d, 0x44, 0x3c, 0x22, 0xab, 0x47, 0x3d,
  0xbb, 0xb3, 0x6a, 0xbe, 0x06, 0xb7, 0x88, 0xbe, 0x0a, 0xaa, 0xa4, 0x3d,
  0x91, 0x12, 0x28, 0x3e, 0x78, 0x07, 0x01, 0x3d, 0x77, 0x7b, 0xb0, 0xbd,
  0x5c, 0x46, 0x4c, 0xbd, 0x3b, 0xa3, 0x03, 0xbe, 0x34, 0x1e, 0x51, 0xbd,
  0xb3, 0xa6, 0x18, 0xbe, 0xbb, 0xb5, 0xc8, 0xbd, 0x45, 0xdb, 0x6e, 0xbe,
  0x61, 0x83, 0x24, 0x3e, 0x0f, 0xd4, 0xe0, 0xbd, 0xc7, 0x38, 0x4d, 0xbe,
  0x76, 0x5c, 0xf4, 0x3d, 0x71, 0xc6, 0xc3, 0xbd, 0x35, 0xbc, 0x68, 0x3d,
  0x38, 0x9a, 0x0e, 0x3e, 0xf4, 0xb1, 0x6f, 0xbe, 0x2c, 0xe5, 0x81, 0x3d,
  0x0f, 0xec, 0x87, 0x3e, 0x20, 0xb0, 0x36, 0x3d, 0x0e, 0x0d, 0x08, 0xbd,
  0x02, 0x31, 0x38, 0x3e, 0xa7, 0xd1, 0xb6, 0x3d, 0xbe, 0x73, 0xa9, 0xbe,
  0xa9, 0x20, 0xfe, 0xbc, 0x86, 0x16, 0xd9, 0xbd, 0x97, 0xc6, 0xb5, 0x3c,
  0xd7, 0xe6, 0xb4, 0xbc, 0xf3, 0x74, 0x09, 0xbe, 0x01, 0xda, 0x08, 0x3e,
  0xdb, 0x15, 0x97, 0x3d, 0xdb, 0x07, 0x47, 0xbe, 0x59, 0xe0, 0x45, 0xbe,
  0x2b, 0x92, 0x3d, 0xbc, 0x6e, 0x91, 0xc3, 0x3e, 0xc5, 0xe0, 0x91, 0xbe,
  0x01, 0x00, 0x06, 0xbe, 0x0d, 0x6e, 0xae, 0x3c, 0x27, 0x32, 0x03, 0x3e,
  0xf2, 0x17, 0xd9, 0xbd, 0x9c, 0x35, 0xe1, 0x3a, 0x98, 0x42, 0x3c, 0xbe,
  0x12, 0xe7, 0xaf, 0x3c, 0x41, 0xf9, 0xf1, 0x3c, 0xf0, 0x05, 0x3e, 0xbf,
  0x9e, 0x3d, 0x37, 0x3e, 0xad, 0x0c, 0x58, 0x3e, 0x58, 0x1d, 0x1f, 0xbe,
  0xf2, 0x04, 0xb5, 0xbd, 0xe9, 0x75, 0xcd, 0xbe, 0xcd, 0x72, 0xa0, 0xbe,
  0xd2, 0x4d, 0x0d, 0x3e, 0xf5, 0xb9, 0x4b, 0x3c, 0x39, 0x19, 0xb6, 0xbe,
  0x23, 0x2d, 0x83, 0xbe, 0xed, 0xec, 0x81, 0xbb, 0x62, 0xe9, 0x84, 0xbc,
  0x91, 0x62, 0xf6, 0xbe, 0x49, 0x1f, 0x33, 0xbc, 0x91, 0x79, 0xaf, 0x3c,
  0x92, 0xba, 0x55, 0xbf, 0xf0, 0x72, 0x11, 0xbf, 0xd3, 0xc7, 0xdd, 0xbe,
  0xcf, 0xcb, 0xb4, 0xbc, 0x11, 0x33, 0x60, 0xbe, 0xeb, 0x63, 0x11, 0xbf,
  0x1d, 0x79, 0x36, 0xbe, 0xa3, 0xda, 0x41, 0x3c, 0x9a, 0xc7, 0xc8, 0xbd,
  0x3c, 0x86, 0x89, 0xbe, 0x3c, 0xa4, 0x76, 0xbd, 0xe7, 0xb6, 0x92, 0xbc,
  0xd2, 0xd1, 0x04, 0x3c, 0x54, 0x9e, 0xb1, 0xbd, 0x30, 0xd6, 0x11, 0x3e,
  0xce, 0xa6, 0x88, 0x3d, 0xc7, 0x31, 0x9b, 0xbe, 0x9b, 0x3d, 0x76, 0xbe,
  0x79, 0xb5, 0xe6, 0xbd, 0x44, 0xb9, 0xbd, 0xbd, 0xf4, 0xaa, 0xdd, 0xbe,
  0xbb, 0xe8, 0x8d, 0xbc, 0xe8, 0x38, 0x01, 0xbe, 0x8e, 0x1d, 0x99, 0xbd,
  0xcd, 0x7b, 0xde, 0xbd, 0x54, 0x53, 0x0f, 0xbe, 0x11, 0x47, 0x1c, 0xbe,
  0x08, 0xb5, 0x9c, 0xbc, 0x28, 0x3f, 0xc8, 0xbd, 0x70, 0x99, 0x6d, 0xbe,
  0xce, 0x08, 0x9f, 0xbe, 0xbf, 0xe5, 0x0a, 0x3c, 0x15, 0xdc, 0xde, 0xbe,
  0x88, 0x5a, 0x16, 0xbe, 0xa8, 0xcd, 0x16, 0xbe, 0x7c, 0xdd, 0x42, 0xbd,
  0xae, 0xa6, 0x50, 0xbe, 0x87, 0x27, 0x22, 0xbe, 0x8f, 0x0b, 0x18, 0xbe,
  0x80, 0xba, 0x10, 0xbe, 0x8e, 0x12, 0xbb, 0x3d, 0xd0, 0x2c, 0x96, 0xbc,
  0x3a, 0xc6, 0x46, 0xbe, 0xc6, 0x46, 0x8f, 0x3c, 0xed, 0x47, 0x8c, 0x3d,
  0x9a, 0xfc, 0x87, 0xbe, 0x7d, 0xae, 0xcd, 0xbd, 0x5c, 0xf9, 0x67, 0xbd,
  0x10, 0xf2, 0x14, 0xbf, 0x9c, 0xd5, 0x30, 0xbd, 0x93, 0x92, 0x83, 0xbe,
  0xf0, 0x00, 0x3f, 0xbe, 0x34, 0x7c, 0x22, 0xbe, 0xad, 0x86, 0x6f, 0xbe,
  0x8e, 0x4a, 0x6e, 0xbe, 0x46, 0x7f, 0xe1, 0xbd, 0xb9, 0x6c, 0xd7, 0x3a,
  0x86, 0x95, 0x3f, 0xbe, 0x57, 0x0a, 0x33, 0xbe, 0x1d, 0x9b, 0x10, 0x3d,
  0xa4, 0x4b, 0x0f, 0x3e, 0xc4, 0x84, 0xdf, 0xbe, 0x20, 0x3a, 0x20, 0xbe,
  0xca, 0xfe, 0x38, 0xbe, 0xef, 0xbd, 0x0b, 0xbf, 0xf0, 0x47, 0x98, 0x3a,
  0x58, 0x7c, 0x8b, 0xbd, 0xa4, 0xba, 0x36, 0x3e, 0xf7, 0xbb, 0x05, 0xbe,
  0x9b, 0xd2, 0x26, 0xbd, 0x99, 0xfb, 0x38, 0xbe, 0x48, 0xe1, 0x85, 0xbc,
  0xdf, 0xf0, 0xa1, 0xbd, 0x29, 0x56, 0x5e, 0xbe, 0x5c, 0xf8, 0x26, 0xbe,
  0x5d, 0xfa, 0x84, 0x3e, 0x7d, 0xf2, 0x30, 0x3e, 0xd6, 0x61, 0xc0, 0x3d,
  0x1b, 0x41, 0x07, 0xbc, 0x78, 0x4d, 0xc8, 0xbe, 0x8b, 0xd6, 0xa8, 0x3d,
  0x8c, 0x09, 0x23, 0xbd, 0xc8, 0xf9, 0x6e, 0xbe, 0x52, 0x51, 0x59, 0x3d,
  0x38, 0xc0, 0x24, 0xbe, 0x98, 0x4e, 0x3d, 0x3e, 0x16, 0x19, 0xae, 0x3b,
  0x8a, 0x0f, 0xdb, 0xbc, 0x70, 0x01, 0x48, 0xbe, 0x9b, 0x20, 0x4e, 0x3e,
  0x85, 0x5d, 0x43, 0xbb, 0xdf, 0xec, 0x47, 0x3e, 0x8b, 0x2d, 0x42, 0x3e,
  0xa9, 0xdc, 0x0d, 0xbd, 0x42, 0xb1, 0x8e, 0x3d, 0xbf, 0xde, 0x15, 0xbf,
  0x01, 0x02, 0x00, 0x3d, 0xbd, 0xb8, 0x79, 0x3d, 0xd7, 0x6d, 0x5d, 0x3d,
  0x5c, 0xb3, 0x3c, 0x3e, 0x53, 0x21, 0x73, 0xbd, 0xad, 0x8d, 0xb6, 0x3e,
  0x4d, 0x7c, 0x28, 0xbe, 0x57, 0x43, 0x15, 0xbe, 0x5d, 0xcb, 0x84, 0xbe,
  0xc6, 0x43, 0xc5, 0x3e, 0x8e, 0xef, 0xb0, 0x3d, 0x3a, 0xf0, 0x12, 0x3e,
  0x49, 0x7a, 0x1f, 0xbe, 0xea, 0x35, 0x8a, 0xbe, 0xcc, 0xd6, 0x19, 0xbd,
  0xf5, 0xe8, 0x47, 0xbe, 0x9b, 0xc9, 0x90, 0xbe, 0x14, 0xa7, 0x50, 0x3e,
  0xdf, 0xcc, 0x89, 0x3e, 0xae, 0xeb, 0x8b, 0x3e, 0xd9, 0xbe, 0xb1, 0x3d,
  0x25, 0x44, 0x89, 0x3e, 0x9a, 0x04, 0xcd, 0x3d, 0x68, 0xef, 0x67, 0x3d,
  0x15, 0x72, 0x24, 0xbe, 0x2e, 0x81, 0x8e, 0x3e, 0x39, 0x3e, 0x80, 0x3d,
  0xaa, 0xcd, 0xac, 0x3d, 0xaa, 0x64, 0x97, 0x3d, 0xfb, 0x38, 0x99, 0xbe,
  0x8a, 0x23, 0xfe, 0x3c, 0xae, 0x98, 0x04, 0x3d, 0xa6, 0x09, 0xfd, 0xbe,
  0xc6, 0xed, 0x85, 0x3e, 0x95, 0x62, 0x7b, 0x3e, 0x81, 0xa4, 0x9e, 0xbc,
  0xd2, 0x54, 0x1a, 0xbd, 0x02, 0x70, 0x8e, 0x3d, 0x2e, 0x76, 0x77, 0x3e,
  0xf1, 0x35, 0x79, 0xbc, 0xdc, 0x09, 0x48, 0xbd, 0x93, 0x2d, 0x5d, 0x3c,
  0xbd, 0x0b, 0x03, 0xbe, 0xbd, 0xc3, 0x7b, 0x3e, 0xad, 0x64, 0xab, 0x3e,
  0x37, 0x19, 0x5d, 0xbd, 0x4f, 0xe6, 0x95, 0x3d, 0xb5, 0x1c, 0xad, 0xbd,
  0x42, 0xce, 0x32, 0x3e, 0xd8, 0x16, 0x85, 0x3e, 0xbe, 0x42, 0x8d, 0xbe,
  0x17, 0x95, 0x7e, 0xbe, 0x7d, 0x4c, 0x80, 0x3c, 0x15, 0x24, 0xa7, 0xbc,
  0xb4, 0x6e, 0x9b, 0xbe, 0xeb, 0xe7, 0xcd, 0xbd, 0xfd, 0xa7, 0x83, 0xbe,
  0x99, 0xb4, 0x6d, 0xbe, 0x64, 0x82, 0x25, 0xbe, 0x73, 0x51, 0x79, 0x3e,
  0xe4, 0x64, 0x4b, 0x3e, 0x50, 0x77, 0x2a, 0xbe, 0x04, 0x2e, 0x66, 0xbd,
  0x3d, 0x3c, 0x15, 0xbe, 0xa0, 0xea, 0xb3, 0x3b, 0xd9, 0x08, 0xda, 0xbd,
  0x9f, 0xe7, 0x03, 0xbe, 0xfc, 0x0c, 0x0e, 0x3e, 0x19, 0x60, 0xf2, 0x3d,
  0xf3, 0x51, 0x9d, 0x3d, 0xf8, 0x6a, 0x97, 0xbe, 0xd1, 0xf7, 0x92, 0x3d,
  0x69, 0x65, 0xc8, 0xbe, 0x80, 0x7f, 0x8f, 0xbd, 0x07, 0x25, 0xa7, 0xbd,
  0x4d, 0x93, 0xac, 0xbe, 0x67, 0x41, 0x99, 0xbe, 0xc3, 0xec, 0xd3, 0xbe,
  0x50, 0x2e, 0xd8, 0x3d, 0xcc, 0x3f, 0x90, 0x3d, 0x35, 0xc6, 0xcf, 0xbe,
  0x3f, 0x1b, 0x0e, 0xbf, 0x59, 0x34, 0xb1, 0xbe, 0xff, 0xdc, 0xfb, 0xbd,
  0x76, 0x6a, 0x59, 0xbd, 0xf8, 0xb0, 0x87, 0xbe, 0x74, 0xd9, 0x2f, 0xbe,
  0xa4, 0x41, 0x4a, 0x3c, 0x8d, 0x35, 0x0b, 0xbe, 0xa4, 0x70, 0x92, 0xbe,
  0xc1, 0xb0, 0xf2, 0xbd, 0x9e, 0x1f, 0x10, 0xbe, 0x28, 0xf2, 0x8d, 0xbe,
  0xe7, 0x53, 0xfa, 0xbc, 0x96, 0x7b, 0x92, 0x3d, 0xce, 0x74, 0x0e, 0x3d,
  0x6f, 0x6b, 0xd3, 0xbd, 0x1a, 0x0a, 0xb8, 0xbe, 0x5c, 0xd4, 0xfb, 0xbd,
  0xab, 0xd4, 0x48, 0x3e, 0x50, 0xfc, 0x85, 0xbc, 0x21, 0x20, 0xd0, 0xbd,
  0xde, 0xa4, 0xb6, 0xbd, 0x6f, 0xa8, 0x70, 0xbc, 0x57, 0x2c, 0x12, 0xbe,
  0xb4, 0x88, 0xf8, 0x3d, 0x58, 0x63, 0x0c, 0x3d, 0xcf, 0xa2, 0x1f, 0xbe,
  0xcb, 0xc3, 0x96, 0xbe, 0x99, 0xf8, 0x66, 0xbe, 0x24, 0xc8, 0xf2, 0xbc,
  0xe1, 0x22, 0xf8, 0xbd, 0x45, 0x38, 0x95, 0xbe, 0x62, 0x26, 0xc4, 0xbe,
  0x74, 0x0d, 0x4f, 0xbe, 0x6b, 0x69, 0x80, 0x3e, 0xcb, 0xa9, 0x20, 0xbe,
  0xec, 0x3d, 0xfe, 0xbd, 0x2b, 0x03, 0xef, 0xbd, 0xeb, 0x96, 0x00, 0x3d,
  0xd1, 0x9f, 0x13, 0xbe, 0x77, 0xf3, 0x5b, 0x3e, 0xe4, 0xae, 0x38, 0x3d,
  0x02, 0x26, 0x97, 0xbe, 0xeb, 0xe9, 0xdf, 0xbe, 0xae, 0x4f, 0x7d, 0x3d,
  0x9d, 0x30, 0x33, 0xbd, 0x3b, 0x7a, 0x76, 0xbc, 0x92, 0x20, 0x30, 0xbe,
  0xe4, 0x26, 0x24, 0xbd, 0x24, 0x12, 0x86, 0x3e, 0x4b, 0x3e, 0x3a, 0x3d,
  0x83, 0x74, 0xa4, 0xbd, 0x5c, 0x0c, 0x45, 0x3e, 0x30, 0x89, 0xc4, 0xbd,
  0x10, 0x79, 0x16, 0x3b, 0xc3, 0x2a, 0xae, 0xbd, 0xb4, 0x3e, 0x0a, 0x3e,
  0xc3, 0xec, 0x9f, 0x3d, 0x98, 0x54, 0xc5, 0xbe, 0x57, 0x20, 0x7f, 0xbe,
  0x2f, 0x0f, 0x9a, 0xbe, 0x9d, 0x9b, 0x96, 0xbd, 0x9a, 0x45, 0x0b, 0xbe,
  0xbc, 0x27, 0xf5, 0xbe, 0x48, 0xbb, 0x2b, 0x3d, 0x78, 0x34, 0xaf, 0x3d,
  0x85, 0x3e, 0x98, 0xbe, 0x27, 0xd8, 0x22, 0xbc, 0x6d, 0x76, 0xf9, 0x3d,
  0xc0, 0xc2, 0x01, 0xbd, 0x02, 0x51, 0x6d, 0xbc, 0xb4, 0xc5, 0xd6, 0xbd,
  0x32, 0x84, 0xe1, 0xbd, 0x79, 0x94, 0x0b, 0xbe, 0x66, 0x03, 0xfd, 0x3d,
  0xd3, 0x82, 0x2f, 0x3e, 0xa5, 0xb0, 0xb2, 0xbe, 0xca, 0x75, 0x12, 0x3e,
  0x89, 0x12, 0xe8, 0xbe, 0xff, 0xea, 0x80, 0xbe, 0xdd, 0x56, 0x6c, 0x3e,
  0x56, 0x2e, 0x86, 0x3c, 0xc7, 0xb9, 0x41, 0xbd, 0xb9, 0x17, 0x5a, 0xbe,
  0xc5, 0xe4, 0xa0, 0x3d, 0x60, 0x36, 0x85, 0xbe, 0xee, 0xa0, 0xca, 0xbd,
  0x3e, 0x4f, 0x00, 0xbe, 0xad, 0xcc, 0xb4, 0xbe, 0x89, 0x9b, 0x6c, 0xbe,
  0xe9, 0x62, 0xd4, 0x3d, 0x9a, 0x36, 0xa3, 0x3d, 0xe4, 0x52, 0x44, 0x3d,
  0xc1, 0x19, 0x01, 0xbe, 0x01, 0x20, 0x99, 0xbe, 0x53, 0x56, 0x65, 0x3d,
  0x2e, 0x24, 0x8d, 0x3d, 0x81, 0x9a, 0xec, 0x3d, 0x4c, 0xe0, 0x80, 0xbd,
  0x0a, 0x74, 0x33, 0x3d, 0x30, 0x56, 0x1d, 0x3d, 0xae, 0xfc, 0x1c, 0xbe,
  0x26, 0x92, 0xd5, 0xbd, 0x71, 0x49, 0x9d, 0xbc, 0x7c, 0xc7, 0x79, 0xbe,
  0xe2, 0x79, 0x88, 0xbe, 0xd8, 0xd4, 0x51, 0x3d, 0xde, 0x22, 0x17, 0x3e,
  0x41, 0xa0, 0x93, 0xbe, 0x05, 0xf9, 0x12, 0x3e, 0x20, 0xd1, 0x33, 0x3e,
  0x0b, 0x35, 0x17, 0x3e, 0x54, 0xe6, 0x68, 0xbe, 0xd2, 0x10, 0x1f, 0xbf,
  0x9f, 0xd2, 0x92, 0x3e, 0x40, 0xe3, 0xa9, 0x3e, 0x4c, 0x92, 0x36, 0xbe,
  0x94, 0xe3, 0xc4, 0x3d, 0x54, 0x6e, 0x98, 0x3b, 0x5d, 0xaf, 0xcd, 0x3d,
  0x56, 0xb1, 0x63, 0xbe, 0xc8, 0x86, 0x3e, 0xbe, 0x52, 0xb3, 0x30, 0x3d,
  0x44, 0xbe, 0x9f, 0x3c, 0x7a, 0x19, 0x87, 0xbe, 0x72, 0x75, 0x90, 0x3e,
  0x32, 0xa3, 0xb5, 0x3e, 0x1f, 0xa4, 0x09, 0xbe, 0x83, 0x79, 0xc9, 0xbe,
  0x32, 0xaf, 0x33, 0xbd, 0x75, 0x1b, 0xf9, 0x3e, 0x87, 0x5d, 0xdf, 0x3c,
  0x38, 0x08, 0xe7, 0xbd, 0x8e, 0x4d, 0xd0, 0x3e, 0xf7, 0xe7, 0x5c, 0x3d,
  0xdc, 0x35, 0x23, 0x3f, 0x8b, 0xd0, 0xa6, 0x3e, 0x0d, 0xbc, 0xb5, 0xbd,
  0xc8, 0xa3, 0x3e, 0xbe, 0x83, 0xd3, 0x29, 0xbc, 0xa8, 0x49, 0x38, 0xbe,
  0xa7, 0xd3, 0x25, 0x3f, 0xf6, 0xbd, 0xb3, 0x3d, 0x22, 0x3b, 0x1f, 0x3e,
  0xc4, 0x61, 0xbb, 0xbe, 0x2c, 0xb9, 0x16, 0xbe, 0xa7, 0x27, 0x86, 0x3e,
  0x7b, 0x90, 0x70, 0x3d, 0x9c, 0x39, 0xdb, 0xbd, 0x83, 0x3a, 0x00, 0x3e,
  0x36, 0x91, 0x05, 0x3d, 0x6f, 0x9a, 0xda, 0x3e, 0x14, 0x4f, 0x9c, 0x3d,
  0xce, 0x23, 0x08, 0xbe, 0x55, 0xd6, 0x6c, 0x3d, 0x05, 0x2f, 0x15, 0x3e,
  0x0d, 0xaa, 0x42, 0x3e, 0x9a, 0x75, 0xc3, 0x3e, 0xf8, 0x8e, 0x21, 0x3e,
  0x55, 0x4c, 0x2d, 0xb9, 0x18, 0x47, 0x80, 0xbe, 0x8d, 0xdb, 0xd6, 0xbd,
  0xd5, 0xa1, 0x00, 0x3d, 0x05, 0x56, 0x51, 0xbc, 0xfc, 0xe3, 0x7b, 0xbd,
  0x34, 0x45, 0xf0, 0x3d, 0xa8, 0x5b, 0xc0, 0x3d, 0xcf, 0x11, 0x07, 0x3f,
  0xce, 0x23, 0x97, 0x3e, 0xbc, 0x2f, 0xe2, 0x3d, 0x1a, 0xf7, 0xbc, 0x3d,
  0x0d, 0xd7, 0x06, 0xbd, 0x30, 0x4d, 0x6f, 0x3d, 0x44, 0x88, 0x47, 0x3e,
  0x4d, 0x84, 0x1c, 0x3e, 0x30, 0xc6, 0x3c, 0x3e, 0x99, 0x93, 0x71, 0xbe,
  0x86, 0xc7, 0xa1, 0xbd, 0x43, 0x1d, 0x3e, 0x3d, 0x8c, 0xfc, 0x9e, 0x3c,
  0xdb, 0xa6, 0x3b, 0xbe, 0xab, 0x91, 0x62, 0x3e, 0x3a, 0x81, 0x31, 0x3d,
  0xab, 0xb8, 0x79, 0x3e, 0x51, 0x20, 0x6b, 0x3e, 0x49, 0x32, 0xcd, 0xbc,
  0x98, 0x6c, 0x9d, 0x3c, 0x2e, 0xd0, 0x75, 0x3d, 0x50, 0x9a, 0x1b, 0xbe,
  0x93, 0x6f, 0xb4, 0x3e, 0xc7, 0x5c, 0x30, 0x3e, 0xd5, 0x3d, 0x78, 0x3c,
  0x8a, 0xab, 0xcb, 0xbe, 0xb3, 0x2e, 0x39, 0xbe, 0xe5, 0xb6, 0x3c, 0xbd,
  0x54, 0xfa, 0x80, 0x3e, 0xa0, 0x11, 0x87, 0xbe, 0x13, 0x70, 0x84, 0xbd,
  0x35, 0x2b, 0x9d, 0x3d, 0x3d, 0x29, 0xa0, 0x3e, 0x72, 0xb5, 0xa7, 0x3e,
  0xbc, 0x2e, 0x47, 0xbe, 0x00, 0x4f, 0x73, 0xbd, 0xa5, 0x2d, 0x67, 0xbc,
  0x38, 0xa4, 0x15, 0xbe, 0xe4, 0xfd, 0x40, 0x3e, 0x8a, 0x37, 0x16, 0x3e,
  0x1d, 0x6c, 0xdd, 0xbd, 0x41, 0x95, 0x5e, 0xbe, 0x85, 0x3f, 0x20, 0xbd,
  0xe0, 0x00, 0x5b, 0xbe, 0x8f, 0xc2, 0x31, 0x3c, 0x3a, 0x1e, 0x81, 0xbe,
  0x38, 0x1e, 0xb0, 0x3d, 0x37, 0x8f, 0x0e, 0xbc, 0x36, 0x9c, 0x07, 0x3d,
  0xcd, 0xf1, 0x35, 0xbd, 0xa0, 0xb8, 0xcd, 0xbc, 0x8d, 0xbf, 0x45, 0xbd,
  0x53, 0x2e, 0x6f, 0xbd, 0x02, 0x15, 0xd8, 0xbd, 0x82, 0xa4, 0x9c, 0x3e,
  0xfe, 0x40, 0xaf, 0x3e, 0x35, 0x48, 0xed, 0xbd, 0xca, 0x6e, 0x12, 0xbe,
  0xcf, 0x88, 0x53, 0xbd, 0xde, 0x40, 0xba, 0x3d, 0x48, 0xe1, 0xce, 0x3a,
  0xb6, 0xd9, 0x2e, 0xbd, 0x66, 0xe0, 0x82, 0x3d, 0xc8, 0x0f, 0x2b, 0xbd,
  0x4c, 0xf4, 0x69, 0x3e, 0x1e, 0x61, 0x83, 0x3c, 0x69, 0x67, 0xab, 0x3d,
  0xb2, 0x23, 0xcc, 0xbd, 0xf7, 0xfa, 0xe2, 0xbd, 0xf8, 0x1a, 0xa5, 0x3d,
  0x25, 0xfd, 0xcb, 0x3e, 0x54, 0xf5, 0x65, 0x3e, 0x21, 0xf4, 0xd8, 0x3d,
  0x53, 0x35, 0xe2, 0xbd, 0x34, 0x72, 0x14, 0x3e, 0xa3, 0x7c, 0x31, 0xbe,
  0xfc, 0x1d, 0xf8, 0xbd, 0x89, 0x2a, 0xe7, 0x3c, 0xc1, 0x5a, 0x5a, 0x3e,
  0x9a, 0x6f, 0xa7, 0xbe, 0x61, 0x76, 0x4a, 0x3e, 0xee, 0x1a, 0xe4, 0xbd,
  0xe4, 0xf3, 0x01, 0xbe, 0x9d, 0x00, 0xb0, 0xbe, 0x20, 0x86, 0x7c, 0xbe,
  0x15, 0x7a, 0x0d, 0x3e, 0x35, 0x3b, 0x2b, 0x3f, 0x16, 0xd0, 0xd8, 0x3d,
  0x26, 0x84, 0x01, 0x3e, 0xc4, 0x12, 0x14, 0xbd, 0x7d, 0xcf, 0xbb, 0x3d,
  0xa1, 0x62, 0x91, 0x3e, 0xcf, 0x93, 0x51, 0x3e, 0x97, 0xcd, 0x90, 0xbd,
  0xf9, 0x95, 0x81, 0x3e, 0x3f, 0x28, 0xf8, 0xbe, 0x5e, 0x36, 0xfb, 0x3e,
  0x4d, 0xb3, 0x35, 0x3e, 0x3f, 0x85, 0x54, 0x3e, 0x70, 0xc0, 0x08, 0xbe,
  0x78, 0x6e, 0x20, 0xbe, 0x1c, 0x7d, 0xf0, 0x3d, 0x38, 0xe7, 0xf3, 0x3e,
  0x96, 0x92, 0xb5, 0x3e, 0x5c, 0x2c, 0x4c, 0x3e, 0x8f, 0x1b, 0xf9, 0x3d,
  0x24, 0x19, 0x2f, 0x3e, 0x59, 0x52, 0x8d, 0xba, 0x0b, 0x92, 0xd8, 0xbd,
  0x70, 0xed, 0xae, 0x3d, 0xf9, 0xd9, 0xbf, 0x3e, 0x84, 0x5b, 0xd5, 0xbe,
  0x53, 0xf6, 0x12, 0x3f, 0x85, 0xa8, 0x31, 0x3e, 0x05, 0x91, 0xf6, 0x3e,
  0xc6, 0x6c, 0x35, 0xbe, 0x6d, 0xb0, 0xc0, 0xbd, 0x68, 0x9f, 0xca, 0x3d,
  0x05, 0x7c, 0xc6, 0x3e, 0x64, 0x78, 0x9c, 0x3e, 0x38, 0x8e, 0x63, 0x3e,
  0x43, 0x18, 0xf8, 0xbc, 0x9f, 0x98, 0x2d, 0x3d, 0x4d, 0x21, 0x00, 0x3e,
  0x52, 0x41, 0xa9, 0x3e, 0x91, 0x68, 0x8d, 0xbd, 0x3e, 0xca, 0xd4, 0x3a,
  0x34, 0x02, 0x7e, 0xbe, 0xd9, 0xac, 0x82, 0x3e, 0xe7, 0xbf, 0x6d, 0x3d,
  0xe2, 0x69, 0x8e, 0xbe, 0xc6, 0x9f, 0x1c, 0x3e, 0x30, 0x48, 0xb8, 0xbc,
  0x2c, 0xa4, 0xdd, 0xbd, 0x2d, 0x17, 0x9b, 0x3e, 0xac, 0x1d, 0x26, 0x3d,
  0xf3, 0x41, 0x39, 0xbe, 0xdd, 0x43, 0xd3, 0xbd, 0xb4, 0xaf, 0x59, 0x3d,
  0x9f, 0x04, 0xbb, 0x3d, 0xee, 0x8b, 0xc3, 0x3d, 0x15, 0x66, 0xe9, 0xbc,
  0xff, 0xb7, 0xb4, 0xbc, 0x28, 0xea, 0xf3, 0xbd, 0x88, 0xd9, 0x00, 0x3f,
  0x7a, 0xe4, 0xeb, 0x3d, 0x26, 0xf7, 0x94, 0xbd, 0xeb, 0x5a, 0x09, 0x3d,
  0xe4, 0xef, 0xc2, 0x3d, 0x9f, 0x85, 0xc0, 0x3a, 0x13, 0xf4, 0xc0, 0x3e,
  0x13, 0x0d, 0x9c, 0x3e, 0x34, 0xbd, 0x07, 0xbe, 0x9b, 0xcf, 0x49, 0xbc,
  0x67, 0xec, 0x04, 0xbe, 0x83, 0x19, 0xfb, 0xbc, 0x9e, 0x8a, 0x8c, 0x3e,
  0x87, 0x15, 0xfe, 0xbd, 0x61, 0xa4, 0x04, 0xbd, 0x3c, 0x1f, 0x0a, 0xbe,
  0xd8, 0xd7, 0x81, 0x3e, 0x20, 0x6d, 0x13, 0x3e, 0xae, 0x87, 0x66, 0xbc,
  0x1c, 0x3c, 0xbb, 0xbd, 0xb7, 0x7d, 0x5b, 0xbe, 0xe2, 0x9f, 0x9a, 0xbe,
  0x7b, 0xe1, 0x29, 0x3e, 0x42, 0xea, 0x92, 0x3e, 0xe4, 0x08, 0x13, 0xbe,
  0x5d, 0x89, 0xa6, 0xbe, 0xf0, 0xab, 0x95, 0xbe, 0x0b, 0x89, 0xf4, 0x3e,
  0x8e, 0x3e, 0xaf, 0x3d, 0x2e, 0xc5, 0x21, 0xbe, 0x02, 0x38, 0x81, 0x3e,
  0xac, 0x26, 0x0e, 0x3e, 0xc2, 0xa3, 0x9d, 0x3e, 0xbe, 0xed, 0x51, 0xbe,
  0x12, 0x78, 0x5d, 0xbe, 0x00, 0xb7, 0x5a, 0xbd, 0x6f, 0xbb, 0x3a, 0xbe,
  0xd2, 0x09, 0x18, 0xbe, 0xdc, 0x2a, 0x9a, 0x3e, 0x35, 0x19, 0x94, 0x3e,
  0x60, 0x14, 0xc6, 0x3d, 0x31, 0xb1, 0xf7, 0xbe, 0x54, 0x88, 0x28, 0x3e,
  0x6c, 0xe4, 0x26, 0xbd, 0xe0, 0xdb, 0x36, 0x3e, 0x4e, 0x1e, 0xb0, 0xbd,
  0xb9, 0x1b, 0x63, 0x3e, 0x3f, 0x00, 0x15, 0x3d, 0xa9, 0x78, 0xe8, 0x3e,
  0x92, 0x9f, 0xeb, 0x3d, 0xbe, 0x87, 0x15, 0xbe, 0x39, 0xa5, 0x8f, 0xbe,
  0xd5, 0xff, 0x93, 0xbe, 0x93, 0x4a, 0x91, 0xbd, 0xc7, 0x29, 0xf6, 0x3e,
  0x5e, 0xd2, 0xb0, 0x3d, 0xc8, 0x2c, 0x42, 0xbd, 0x98, 0x37, 0x0a, 0xbf,
  0xd7, 0x8d, 0x22, 0x3e, 0x07, 0xdf, 0x6e, 0xbc, 0xfc, 0xcf, 0x9e, 0x3e,
  0xc9, 0xa8, 0xae, 0x3d, 0xe8, 0xb0, 0x1e, 0x3e, 0x47, 0xc7, 0x3e, 0x3d,
  0x12, 0x4a, 0x02, 0x3f, 0x3f, 0x7f, 0x95, 0x3d, 0x46, 0x85, 0xc9, 0xbd,
  0x58, 0xb9, 0x3b, 0xbd, 0x0b, 0x0a, 0xc5, 0x3c, 0x01, 0x5f, 0xc5, 0x3c,
  0x6e, 0x19, 0x04, 0x3e, 0xbd, 0xaf, 0x7c, 0x3e, 0x96, 0xda, 0x00, 0x3d,
  0x52, 0xfa, 0xc7, 0xbe, 0x6f, 0xf9, 0x0c, 0x3e, 0x0f, 0x61, 0x15, 0x3d,
  0xe4, 0xae, 0x9d, 0x3c, 0x77, 0xb0, 0x8f, 0x3b, 0x6e, 0x86, 0x5e, 0x3e,
  0xb5, 0x08, 0xbb, 0x3d, 0xee, 0x88, 0xf6, 0x3e, 0xe6, 0x91, 0xbf, 0xbc,
  0x64, 0xd1, 0x84, 0xbe, 0xd9, 0x31, 0x31, 0xbc, 0x8b, 0xde, 0x48, 0x3d,
  0xf3, 0x37, 0x94, 0xbe, 0x30, 0xe2, 0xe6, 0x3e, 0x5c, 0x47, 0x8a, 0x3e,
  0x59, 0x4a, 0x82, 0x3d, 0xa3, 0xc2, 0xd0, 0xbe, 0xae, 0xc7, 0xd8, 0x3d,
  0xba, 0x36, 0x66, 0xbd, 0x9f, 0x70, 0x2a, 0x3d, 0x9d, 0xfc, 0x86, 0xbd,
  0x67, 0x8f, 0x04, 0x3f, 0x54, 0x4e, 0x1a, 0x3d, 0xe3, 0x25, 0xc6, 0x3d,
  0xf2, 0xdc, 0x6f, 0xbe, 0xbd, 0xa0, 0x8e, 0xbd, 0x51, 0xc9, 0xf9, 0xbc,
  0x19, 0xc9, 0x45, 0x3e, 0xf4, 0x2d, 0x8c, 0xbe, 0xfe, 0x9e, 0x12, 0x3e,
  0x69, 0xdc, 0x6b, 0x3e, 0x4a, 0xfc, 0x97, 0xbd, 0x9f, 0x40, 0x15, 0xbf,
  0x8a, 0x15, 0xfa, 0x3c, 0x6f, 0x72, 0x33, 0xbe, 0xc4, 0xf2, 0x32, 0x3e,
  0x55, 0x89, 0x92, 0xbe, 0x69, 0xca, 0xa5, 0x3e, 0x03, 0x37, 0xd8, 0x3c,
  0xa0, 0x64, 0xa5, 0x3e, 0xc8, 0xbf, 0x02, 0x3c, 0xd3, 0xa5, 0x01, 0x3e,
  0x49, 0x02, 0x8b, 0xbd, 0xf8, 0x33, 0xb3, 0xbd, 0x4c, 0x40, 0x52, 0xbe,
  0x26, 0x16, 0xff, 0x3d, 0x1c, 0x47, 0xe0, 0x3d, 0x99, 0xab, 0x89, 0xbe,
  0x61, 0x40, 0xae, 0xbe, 0x6a, 0x71, 0x2a, 0x3d, 0x33, 0x92, 0x22, 0xbe,
  0x81, 0x3b, 0xe6, 0x3d, 0x38, 0x30, 0x99, 0xbe, 0x64, 0xdb, 0x8b, 0xbd,
  0xe1, 0x81, 0xbc, 0x3d, 0x6f, 0xa7, 0x07, 0x3e, 0xf9, 0xba, 0x9d, 0xbc,
  0xc2, 0x8d, 0xb3, 0x3d, 0x2a, 0x6b, 0x91, 0xbc, 0x12, 0xf2, 0xc6, 0xbc,
  0x0f, 0x31, 0x2d, 0x3e, 0x42, 0x8f, 0x8f, 0xbe, 0x6d, 0x8d, 0x12, 0xbe,
  0x5a, 0x8a, 0xeb, 0x3c, 0x25, 0x96, 0xaa, 0x3d, 0x60, 0x24, 0x72, 0x3d,
  0xe1, 0x71, 0xfd, 0x3d, 0xa2, 0xf4, 0x07, 0xbc, 0x6c, 0xbd, 0xee, 0xbc,
  0xc4, 0x62, 0xbd, 0x3d, 0x0c, 0x8a, 0xea, 0xbc, 0x7c, 0x64, 0x51, 0xbd,
  0xa7, 0x89, 0x95, 0x3e, 0x1d, 0x6f, 0xf6, 0x3d, 0x16, 0x82, 0x8c, 0xbd,
  0x83, 0x68, 0x01, 0xbd, 0x76, 0xb2, 0xb4, 0xbd, 0x24, 0x8c, 0x3e, 0x3d,
  0x19, 0xe4, 0x8f, 0xbe, 0xb2, 0x2e, 0x4e, 0x3d, 0xd0, 0x9b, 0x17, 0x3d,
  0xd5, 0x08, 0x77, 0xbb, 0x97, 0xe0, 0x87, 0xbe, 0x16, 0x45, 0x4b, 0xbd,
  0xb6, 0x61, 0xe6, 0xbd, 0x8c, 0x41, 0x20, 0x3e, 0x77, 0x1e, 0x78, 0xbd,
  0x73, 0x88, 0x48, 0xbd, 0x39, 0x20, 0x7f, 0xbd, 0x71, 0x15, 0x0a, 0x3e,
  0xf0, 0x2b, 0xa8, 0x3c, 0x6f, 0x61, 0x17, 0xba, 0x74, 0xfb, 0x76, 0xbe,
  0x23, 0x28, 0x6d, 0x3d, 0xec, 0x9a, 0x27, 0xbe, 0xf1, 0x6a, 0xf9, 0xbd,
  0x75, 0x5b, 0xd1, 0x3d, 0x8b, 0x2a, 0x88, 0x3c, 0x22, 0x6b, 0xac, 0x3d,
  0x1d, 0x30, 0x02, 0xbe, 0x63, 0x34, 0x7f, 0xbd, 0x79, 0x7d, 0x81, 0x3c,
  0xd8, 0xc8, 0xb1, 0xbb, 0x63, 0x38, 0xca, 0xbc, 0xdc, 0x84, 0x42, 0xbe,
  0x2a, 0x27, 0x4a, 0x3e, 0xde, 0xf9, 0x84, 0x3d, 0x69, 0x5a, 0x2c, 0x3e,
  0x5d, 0x57, 0x71, 0xbe, 0x31, 0x4c, 0x80, 0x3d, 0x8a, 0xef, 0x40, 0xbd,
  0x79, 0xc0, 0xa4, 0x3d, 0xd1, 0xc0, 0x84, 0xbe, 0x09, 0x01, 0x2f, 0xbe,
  0xc3, 0x0c, 0xa4, 0xbd, 0xb9, 0x90, 0x57, 0xbd, 0x79, 0xf2, 0xbe, 0xbc,
  0xf5, 0xfe, 0xc9, 0xbe, 0x73, 0x56, 0x27, 0xbc, 0x84, 0x9b, 0xe5, 0xbd,
  0x3d, 0x54, 0xf3, 0xbd, 0xd4, 0x97, 0x0a, 0xbe, 0xe0, 0x30, 0xed, 0xbd,
  0xdb, 0x72, 0x19, 0xbe, 0xed, 0xdb, 0x85, 0xbd, 0xdd, 0xea, 0x6f, 0xbe,
  0x12, 0xa5, 0xeb, 0x3c, 0xd5, 0xb5, 0x0e, 0x3d, 0xe4, 0xfd, 0xc8, 0xbd,
  0x1f, 0x33, 0x16, 0xbd, 0x1e, 0x9f, 0xa0, 0xbd, 0x81, 0x80, 0xae, 0x3d,
  0xaf, 0x83, 0x29, 0xbd, 0xe8, 0x1a, 0x04, 0xbe, 0xb6, 0x1f, 0x9b, 0x3c,
  0xa1, 0x01, 0xdd, 0x3d, 0x56, 0xa2, 0x87, 0x3c, 0xe0, 0x10, 0x8a, 0xbe,
  0x3a, 0x33, 0xbc, 0xbe, 0xd2, 0x3d, 0x8d, 0xbd, 0x79, 0x7d, 0xbd, 0xbd,
  0xd3, 0x24, 0xc2, 0x3d, 0x2d, 0x26, 0x92, 0x3c, 0xac, 0x57, 0x34, 0xbd,
  0x53, 0x58, 0x94, 0xbd, 0x68, 0xc4, 0x07, 0xbd, 0x89, 0x00, 0x82, 0xbc,
  0xc7, 0xc0, 0x70, 0xbd, 0x03, 0x7a, 0x83, 0xbe, 0x0a, 0x19, 0x33, 0xbe,
  0xc1, 0xf3, 0x87, 0x3c, 0xa8, 0xa6, 0x19, 0x3e, 0xbf, 0x83, 0xab, 0xbe,
  0x5c, 0xd3, 0x90, 0xbc, 0x76, 0x92, 0x83, 0xbe, 0x83, 0xa3, 0x90, 0x3a,
  0xe3, 0x15, 0x91, 0xbd, 0xef, 0x53, 0x39, 0x3c, 0xf4, 0xe5, 0xf7, 0x3d,
  0x9e, 0x3a, 0x03, 0xbe, 0xf1, 0xaf, 0x06, 0xbe, 0x50, 0x57, 0x95, 0xbd,
  0x46, 0xa7, 0x8b, 0xbe, 0x7b, 0xef, 0xbb, 0xbd, 0x23, 0xc2, 0x75, 0xbe,
  0x30, 0x70, 0x45, 0x3c, 0x66, 0x46, 0x56, 0x3d, 0xb3, 0x76, 0xe0, 0xbd,
  0x9e, 0xfc, 0x97, 0x3b, 0xbb, 0x35, 0x1d, 0xbe, 0x03, 0xa8, 0x8a, 0xbe,
  0xe8, 0x7e, 0x21, 0xbd, 0x3a, 0x72, 0x92, 0xbe, 0x57, 0xbf, 0x60, 0x3e,
  0x7c, 0x5b, 0x89, 0x3e, 0x4f, 0xb9, 0x77, 0x3e, 0xe9, 0x4a, 0xa7, 0xbe,
  0x32, 0x09, 0xbe, 0xbe, 0x5f, 0x8f, 0x03, 0x3f, 0x86, 0x5b, 0xdd, 0x3d,
  0xf9, 0xb4, 0x51, 0xbe, 0x0e, 0xd6, 0x68, 0x3e, 0x80, 0xbf, 0x00, 0x3e,
  0x6d, 0xd9, 0x78, 0x3e, 0x70, 0xf4, 0xf2, 0xbe, 0x53, 0xce, 0x00, 0xbe,
  0xdb, 0xf1, 0xe2, 0xbd, 0xa6, 0x87, 0xc6, 0xbd, 0x83, 0x63, 0x11, 0xbe,
  0x0e, 0xc7, 0x35, 0x3e, 0x6c, 0x40, 0x9e, 0x3e, 0x28, 0xef, 0x41, 0x3e,
  0x85, 0xc1, 0x01, 0xbf, 0xf5, 0x0f, 0xed, 0x3d, 0x8b, 0xa4, 0x72, 0x3e,
  0xe3, 0x78, 0x4f, 0x3e, 0xf1, 0x70, 0x9d, 0xbd, 0x43, 0x7c, 0xe9, 0x3e,
  0xa4, 0x47, 0x7e, 0x3d, 0xd7, 0xcd, 0x36, 0x3e, 0x98, 0xc5, 0xa2, 0x3e,
  0x38, 0x23, 0xff, 0x3d, 0x94, 0x08, 0xd5, 0xbe, 0xac, 0xa4, 0x5d, 0xbd,
  0xfc, 0x51, 0xad, 0xbe, 0xaa, 0x29, 0x08, 0x3f, 0x70, 0x80, 0x82, 0x3e,
  0x00, 0x97, 0xfb, 0xbd, 0xb1, 0x05, 0x12, 0xbf, 0xcf, 0x77, 0x53, 0x3e,
  0xec, 0xd3, 0x6a, 0x3e, 0x79, 0x38, 0xce, 0x3d, 0x2c, 0xa7, 0x06, 0xbd,
  0x57, 0x36, 0xa3, 0x3e, 0x86, 0xd2, 0x74, 0xbd, 0x81, 0x13, 0xfc, 0x3e,
  0x4f, 0x75, 0x5e, 0xbc, 0x0b, 0xfe, 0xb6, 0x3d, 0xf2, 0xc2, 0x70, 0xbe,
  0x3d, 0xa6, 0x4a, 0x3e, 0xf5, 0x1e, 0x89, 0xbd, 0x63, 0x30, 0x52, 0x3e,
  0xc3, 0xa7, 0x2b, 0x3e, 0x71, 0xd9, 0xfd, 0xbc, 0x93, 0xcd, 0x94, 0xbe,
  0x54, 0x8f, 0xec, 0x3d, 0xaf, 0xbb, 0xe7, 0x3d, 0x31, 0x3a, 0x26, 0x3e,
  0x03, 0x89, 0x63, 0x3d, 0xbf, 0x43, 0x29, 0x3e, 0xc7, 0x2f, 0x2b, 0xbd,
  0xd1, 0x62, 0xd5, 0x3e, 0xa2, 0x85, 0x8c, 0x3e, 0x2e, 0xce, 0x64, 0x3e,
  0x0d, 0xc8, 0xdd, 0xbd, 0x17, 0x8d, 0x32, 0x3e, 0x9e, 0x20, 0x17, 0xbe,
  0x61, 0x53, 0x28, 0x3f, 0x37, 0x89, 0xf0, 0x3d, 0x50, 0x2e, 0xbd, 0x3d,
  0xf2, 0xfd, 0x86, 0xbe, 0x7c, 0x11, 0x37, 0x3e, 0xe7, 0xe1, 0x41, 0x3d,
  0xfe, 0x57, 0xe5, 0x3d, 0x86, 0x18, 0x6f, 0xbe, 0x2c, 0x80, 0x4a, 0x3e,
  0x29, 0xd0, 0x04, 0xbd, 0xd5, 0xf9, 0x6e, 0x3e, 0x72, 0xf6, 0xa7, 0x3e,
  0xc8, 0x3d, 0xd0, 0xbd, 0xa4, 0xb7, 0x97, 0xbe, 0x24, 0x9f, 0x55, 0xbd,
  0xb0, 0x09, 0xbd, 0xbd, 0x39, 0xcc, 0xda, 0x3e, 0x76, 0x4c, 0x93, 0x3b,
  0x87, 0xe4, 0xea, 0xbd, 0xfd, 0x71, 0x6d, 0xbe, 0xeb, 0xee, 0xf7, 0x3d,
  0x30, 0x22, 0x6b, 0xbd, 0x0c, 0x5c, 0x19, 0x3e, 0x84, 0xb9, 0x15, 0xbf,
  0x90, 0xef, 0xc7, 0x3d, 0x97, 0xb6, 0x0c, 0x3d, 0xd5, 0x0c, 0xe6, 0x3e,
  0xe6, 0x70, 0xee, 0xbb, 0x35, 0x67, 0x31, 0xbe, 0x23, 0x98, 0x22, 0xbe,
  0x98, 0xf6, 0x92, 0x3d, 0x83, 0x9f, 0xb9, 0xbe, 0x1a, 0x7b, 0x01, 0x3e,
  0xfe, 0x1e, 0x3e, 0x3e, 0x11, 0x28, 0x7f, 0xbe, 0x79, 0xde, 0x71, 0xbe,
  0xa4, 0xf1, 0xe8, 0x3a, 0xe4, 0x0e, 0xb2, 0xbd, 0x86, 0x96, 0xa8, 0x3d,
  0xf3, 0x42, 0xf6, 0xbe, 0x34, 0xcd, 0x64, 0x3c, 0x4a, 0x8c, 0x19, 0x3e,
  0x47, 0xdc, 0x31, 0x3e, 0x58, 0x17, 0x68, 0x3d, 0xb1, 0x68, 0x8f, 0xbd,
  0xca, 0x95, 0x57, 0xbd, 0xbc, 0x50, 0x5d, 0xbd, 0xf2, 0x37, 0x18, 0x3e,
  0x43, 0xa4, 0xfa, 0xbd, 0x27, 0xbc, 0x6f, 0xbd, 0xcd, 0x0b, 0x90, 0xbc,
  0x33, 0xbb, 0x1f, 0xbd, 0x04, 0x5b, 0x29, 0x3c, 0x14, 0x9d, 0xb8, 0xbe,
  0x51, 0xe5, 0x5a, 0x3e, 0x24, 0x48, 0x2d, 0xbd, 0x53, 0x1c, 0x90, 0x3e,
  0x94, 0xa0, 0x88, 0xbd, 0xe9, 0x94, 0x27, 0xbc, 0x4b, 0x92, 0x89, 0x3e,
  0x77, 0xb9, 0x65, 0x3e, 0x75, 0xb2, 0x98, 0xbe, 0x89, 0x1a, 0x46, 0xbe,
  0x05, 0xd7, 0x22, 0xbe, 0x4b, 0xc6, 0xba, 0xbd, 0x96, 0x7f, 0xea, 0x3c,
  0xc0, 0x74, 0x0e, 0xbe, 0xfa, 0x9e, 0xa9, 0x3d, 0x05, 0x76, 0x54, 0x3c,
  0x73, 0x5f, 0x65, 0xbe, 0xe9, 0x5c, 0xf7, 0x3d, 0x3a, 0x09, 0xc5, 0x3c,
  0x2e, 0xc9, 0xa7, 0xbd, 0xe0, 0x15, 0xa3, 0xbd, 0xba, 0x72, 0xb8, 0xbb,
  0x57, 0x67, 0x70, 0xbe, 0x27, 0x12, 0x81, 0xbd, 0x93, 0x6d, 0x01, 0xbd,
  0x5c, 0xdb, 0x4b, 0xbd, 0x0f, 0xfd, 0x0e, 0xbf, 0xe8, 0xa1, 0x28, 0x3e,
  0x54, 0xad, 0x3f, 0xbd, 0x4a, 0xf5, 0x17, 0xbe, 0x7c, 0x11, 0xbf, 0x3a,
  0x99, 0x2b, 0x3c, 0xbd, 0xcb, 0xdc, 0x8c, 0xbe, 0xb9, 0xd8, 0x3a, 0x3d,
  0xdc, 0xbe, 0xac, 0xbe, 0x75, 0x98, 0xbe, 0xbe, 0x3d, 0xee, 0x21, 0x3c,
  0xef, 0x15, 0xc4, 0x3d, 0x68, 0x27, 0x8b, 0xbe, 0xe7, 0x99, 0x82, 0xbe,
  0xb3, 0x7c, 0x92, 0xbe, 0x0e, 0xf4, 0x86, 0xbc, 0xfb, 0xd6, 0x0d, 0xbf,
  0x05, 0xe8, 0x5e, 0xbd, 0x4e, 0xc2, 0x6a, 0x3d, 0x6e, 0x36, 0x9a, 0xbe,
  0x50, 0x24, 0x07, 0xbe, 0x0e, 0xa1, 0x97, 0xbe, 0x15, 0x3a, 0xd2, 0x3d,
  0xf0, 0xfc, 0x7f, 0xbc, 0x13, 0x0e, 0xed, 0xbe, 0xa8, 0xa5, 0xbb, 0xbe,
  0x04, 0x30, 0x46, 0xbd, 0x55, 0x1f, 0x21, 0xbe, 0x88, 0x3e, 0xb0, 0xbe,
  0x87, 0xc1, 0x3a, 0xbe, 0x44, 0x9c, 0x82, 0xbc, 0xff, 0x10, 0x5c, 0x3e,
  0x8a, 0x0c, 0xce, 0xbc, 0x2f, 0xb1, 0xcb, 0x3d, 0x19, 0x01, 0x7e, 0x3c,
  0xf1, 0xbc, 0x15, 0x3d, 0x8e, 0xc4, 0x74, 0xbe, 0x3b, 0x48, 0x4a, 0xbe,
  0x87, 0x82, 0xc6, 0x3e, 0x5c, 0x1d, 0xa8, 0xbd, 0x37, 0x5c, 0x17, 0x3e,
  0xd4, 0xa5, 0x9f, 0x3e, 0xfb, 0xb2, 0x59, 0xbd, 0x6f, 0x4a, 0x2b, 0xbe,
  0xf0, 0x86, 0xf5, 0x3e, 0xdf, 0xf2, 0xd6, 0x3e, 0xed, 0xe5, 0x4f, 0xbd,
  0x11, 0xfc, 0x0d, 0xbd, 0x21, 0x7e, 0xb8, 0x3d, 0x0d, 0x3b, 0x78, 0x3d,
  0xe6, 0x56, 0xc0, 0xbd, 0x28, 0x16, 0x7a, 0x3d, 0x27, 0x10, 0x63, 0xbd,
  0xe9, 0x57, 0x02, 0x3e, 0xc6, 0x0c, 0x52, 0x3e, 0xb7, 0x4f, 0x8e, 0xbe,
  0x20, 0x78, 0x9b, 0xbc, 0x55, 0x44, 0xa2, 0x3e, 0x06, 0x06, 0x25, 0xbd,
  0x0e, 0xa2, 0x58, 0xbe, 0x9c, 0x36, 0xaf, 0x3e, 0xfc, 0xea, 0xb7, 0x3e,
  0x99, 0xa7, 0xf2, 0xbd, 0xc0, 0x49, 0xa2, 0xbc, 0xaa, 0x65, 0x34, 0x3d,
  0x47, 0xdf, 0x0d, 0xbe, 0x7d, 0x17, 0x4e, 0xbd, 0x44, 0x28, 0x01, 0x3e,
  0xef, 0x08, 0x44, 0x3d, 0x30, 0x23, 0x1c, 0xbd, 0xd9, 0x34, 0xe8, 0x3e,
  0xf4, 0x76, 0x13, 0xbe, 0xd3, 0xcb, 0xec, 0x3d, 0x03, 0x64, 0x7b, 0x3d,
  0x7d, 0x65, 0xa3, 0xbc, 0x33, 0xb3, 0x3a, 0xbd, 0xb6, 0xd0, 0xf5, 0x3d,
  0xa8, 0x1d, 0xe9, 0x3d, 0xb5, 0xa1, 0xcd, 0xbd, 0x7b, 0xbd, 0x4c, 0x3a,
  0x66, 0xfd, 0xff, 0xff, 0x10, 0x00, 0x00, 0x00, 0x07, 0x00, 0x00, 0x00,
  0x14, 0x00, 0x00, 0x00, 0x2c, 0x00, 0x00, 0x00, 0x02, 0x00, 0x00, 0x00,
  0x10, 0x00, 0x00, 0x00, 0x70, 0x00, 0x00, 0x00, 0x17, 0x00, 0x00, 0x00,
  0x73, 0x65, 0x71, 0x75, 0x65, 0x6e, 0x74, 0x69, 0x61, 0x6c, 0x2f, 0x64,
  0x65, 0x6e, 0x73, 0x65, 0x2f, 0x4d, 0x61, 0x74, 0x4d, 0x75, 0x6c, 0x00,
  0xd0, 0xfc, 0xff, 0xff, 0xda, 0xfd, 0xff, 0xff, 0x04, 0x00, 0x00, 0x00,
  0x08, 0x00, 0x00, 0x00, 0xff, 0xff, 0xff, 0xff, 0x70, 0x00, 0x00, 0x00,
  0x00, 0x00, 0x0e, 0x00, 0x18, 0x00, 0x08, 0x00, 0x07, 0x00, 0x0c, 0x00,
  0x10, 0x00, 0x14, 0x00, 0x0e, 0x00, 0x00, 0x00, 0x00, 0x00, 0x00, 0x02,
  0x10, 0x00, 0x00, 0x00, 0x06, 0x00, 0x00, 0x00, 0x10, 0x00, 0x00, 0x00,
  0x2c, 0x00, 0x00, 0x00, 0x01, 0x00, 0x00, 0x00, 0x02, 0x00, 0x00, 0x00,
  0x18, 0x00, 0x00, 0x00, 0x73, 0x65, 0x71, 0x75, 0x65, 0x6e, 0x74, 0x69,
  0x61, 0x6c, 0x2f, 0x66, 0x6c, 0x61, 0x74, 0x74, 0x65, 0x6e, 0x2f, 0x43,
  0x6f, 0x6e, 0x73, 0x74, 0x00, 0x00, 0x00, 0x00, 0x38, 0xfd, 0xff, 0xff,
  0x42, 0xfe, 0xff, 0xff, 0x04, 0x00, 0x00, 0x00, 0x0c, 0x00, 0x00, 0x00,
  0xa1, 0x38, 0xb8, 0x3f, 0xfe, 0xdb, 0x42, 0xc0, 0x95, 0x98, 0x25, 0x3e,
  0x26, 0xfe, 0xff, 0xff, 0x10, 0x00, 0x00, 0x00, 0x05, 0x00, 0x00, 0x00,
  0x10, 0x00, 0x00, 0x00, 0x44, 0x00, 0x00, 0x00, 0x01, 0x00, 0x00, 0x00,
  0x03, 0x00, 0x00, 0x00, 0x32, 0x00, 0x00, 0x00, 0x73, 0x65, 0x71, 0x75,
  0x65, 0x6e, 0x74, 0x69, 0x61, 0x6c, 0x2f, 0x64, 0x65, 0x6e, 0x73, 0x65,
  0x5f, 0x31, 0x2f, 0x42, 0x69, 0x61, 0x73, 0x41, 0x64, 0x64, 0x2f, 0x52,
  0x65, 0x61, 0x64, 0x56, 0x61, 0x72, 0x69, 0x61, 0x62, 0x6c, 0x65, 0x4f,
  0x70, 0x2f, 0x72, 0x65, 0x73, 0x6f, 0x75, 0x72, 0x63, 0x65, 0x00, 0x00,
  0xa8, 0xfd, 0xff, 0xff, 0xb2, 0xfe, 0xff, 0xff, 0x04, 0x00, 0x00, 0x00,
  0x40, 0x00, 0x00, 0x00, 0x7c, 0x35, 0x00, 0x3f, 0x23, 0xba, 0xe8, 0xbf,
  0x16, 0x62, 0x83, 0xbf, 0x7e, 0x66, 0x54, 0xbf, 0x7e, 0x5e, 0x5a, 0x3f,
  0x59, 0x72, 0x40, 0xbf, 0x11, 0x0c, 0x24, 0xbf, 0x8f, 0x4b, 0xbc, 0xbf,
  0x38, 0xd5, 0xcf, 0xbf, 0x1e, 0xfb, 0xa6, 0xbf, 0x54, 0x05, 0xfd, 0x3f,
  0xc3, 0xf9, 0x52, 0x3f, 0x42, 0x4e, 0x24, 0x40, 0x90, 0x62, 0x0a, 0xc0,
  0xc7, 0x49, 0x02, 0x40, 0x63, 0xd5, 0x13, 0xc0, 0xca, 0xfe, 0xff, 0xff,
  0x10, 0x00, 0x00, 0x00, 0x04, 0x00, 0x00, 0x00, 0x10, 0x00, 0x00, 0x00,
  0x44, 0x00, 0x00, 0x00, 0x01, 0x00, 0x00, 0x00, 0x10, 0x00, 0x00, 0x00,
  0x30, 0x00, 0x00, 0x00, 0x73, 0x65, 0x71, 0x75, 0x65, 0x6e, 0x74, 0x69,
  0x61, 0x6c, 0x2f, 0x64, 0x65, 0x6e, 0x73, 0x65, 0x2f, 0x42, 0x69, 0x61,
  0x73, 0x41, 0x64, 0x64, 0x2f, 0x52, 0x65, 0x61, 0x64, 0x56, 0x61, 0x72,
  0x69, 0x61, 0x62, 0x6c, 0x65, 0x4f, 0x70, 0x2f, 0x72, 0x65, 0x73, 0x6f,
  0x75, 0x72, 0x63, 0x65, 0x00, 0x00, 0x00, 0x00, 0x4c, 0xfe, 0xff, 0xff,
  0x56, 0xff, 0xff, 0xff, 0x04, 0x00, 0x00, 0x00, 0x40, 0x00, 0x00, 0x00,
  0x6f, 0x40, 0xa9, 0xbf, 0xc7, 0x1c, 0x24, 0xbb, 0xae, 0x35, 0x41, 0x3b,
  0xd2, 0x03, 0xa3, 0x3b, 0xa5, 0xd0, 0x9c, 0x3f, 0xfe, 0x7f, 0x76, 0x3e,
  0x97, 0xc6, 0xc8, 0xbe, 0x0d, 0x91, 0xe0, 0xba, 0x5b, 0xf4, 0x56, 0xc0,
  0xb2, 0x43, 0x1f, 0xbc, 0xf9, 0x00, 0x54, 0x3f, 0x5e, 0xf5, 0x73, 0xbc,
  0x24, 0x11, 0x44, 0xbf, 0xa6, 0x65, 0xb2, 0xbf, 0x5a, 0x4a, 0xae, 0xbf,
  0xe3, 0x03, 0x84, 0xbf, 0x6e, 0xff, 0xff, 0xff, 0x10, 0x00, 0x00, 0x00,
  0x03, 0x00, 0x00, 0x00, 0x10, 0x00, 0x00, 0x00, 0x48, 0x00, 0x00, 0x00,
  0x01, 0x00, 0x00, 0x00, 0x10, 0x00, 0x00, 0x00, 0x33, 0x00, 0x00, 0x00,
  0x73, 0x65, 0x71, 0x75, 0x65, 0x6e, 0x74, 0x69, 0x61, 0x6c, 0x2f, 0x63,
  0x6f, 0x6e, 0x76, 0x32, 0x64, 0x5f, 0x31, 0x2f, 0x42, 0x69, 0x61, 0x73,
  0x41, 0x64, 0x64, 0x2f, 0x52, 0x65, 0x61, 0x64, 0x56, 0x61, 0x72, 0x69,
  0x61, 0x62, 0x6c, 0x65, 0x4f, 0x70, 0x2f, 0x72, 0x65, 0x73, 0x6f, 0x75,
  0x72, 0x63, 0x65, 0x00, 0x04, 0x00, 0x06, 0x00, 0x04, 0x00, 0x00, 0x00,
  0x00, 0x00, 0x06, 0x00, 0x08, 0x00, 0x04, 0x00, 0x06, 0x00, 0x00, 0x00,
  0x04, 0x00, 0x00, 0x00, 0x20, 0x00, 0x00, 0x00, 0x71, 0xb6, 0x38, 0xc0,
  0x62, 0xda, 0xd9, 0xbe, 0xb8, 0x56, 0xd9, 0xbf, 0x86, 0xb1, 0x0f, 0xbf,
  0x34, 0xaf, 0xa4, 0x3b, 0x9d, 0x20, 0x80, 0xc0, 0xeb, 0x84, 0x12, 0xc0,
  0xf6, 0x37, 0x2c, 0xc0, 0x00, 0x00, 0x0e, 0x00, 0x14, 0x00, 0x04, 0x00,
  0x00, 0x00, 0x08, 0x00, 0x0c, 0x00, 0x10, 0x00, 0x0e, 0x00, 0x00, 0x00,
  0x10, 0x00, 0x00, 0x00, 0x02, 0x00, 0x00, 0x00, 0x10, 0x00, 0x00, 0x00,
  0x44, 0x00, 0x00, 0x00, 0x01, 0x00, 0x00, 0x00, 0x08, 0x00, 0x00, 0x00,
  0x31, 0x00, 0x00, 0x00, 0x73, 0x65, 0x71, 0x75, 0x65, 0x6e, 0x74, 0x69,
  0x61, 0x6c, 0x2f, 0x63, 0x6f, 0x6e, 0x76, 0x32, 0x64, 0x2f, 0x42, 0x69,
  0x61, 0x73, 0x41, 0x64, 0x64, 0x2f, 0x52, 0x65, 0x61, 0x64, 0x56, 0x61,
  0x72, 0x69, 0x61, 0x62, 0x6c, 0x65, 0x4f, 0x70, 0x2f, 0x72, 0x65, 0x73,
  0x6f, 0x75, 0x72, 0x63, 0x65, 0x00, 0x00, 0x00, 0x90, 0xff, 0xff, 0xff,
  0x14, 0x00, 0x18, 0x00, 0x04, 0x00, 0x00, 0x00, 0x08, 0x00, 0x0c, 0x00,
  0x10, 0x00, 0x00, 0x00, 0x00, 0x00, 0x14, 0x00, 0x14, 0x00, 0x00, 0x00,
  0x14, 0x00, 0x00, 0x00, 0x01, 0x00, 0x00, 0x00, 0x20, 0x00, 0x00, 0x00,
  0x44, 0x00, 0x00, 0x00, 0x2c, 0x00, 0x00, 0x00, 0x04, 0x00, 0x00, 0x00,
  0x01, 0x00, 0x00, 0x00, 0x40, 0x00, 0x00, 0x00, 0x03, 0x00, 0x00, 0x00,
  0x01, 0x00, 0x00, 0x00, 0x0c, 0x00, 0x00, 0x00, 0x63, 0x6f, 0x6e, 0x76,
  0x32, 0x64, 0x5f, 0x69, 0x6e, 0x70, 0x75, 0x74, 0x00, 0x00, 0x00, 0x00,
  0x04, 0x00, 0x00, 0x00, 0xff, 0xff, 0xff, 0xff, 0x40, 0x00, 0x00, 0x00,
  0x03, 0x00, 0x00, 0x00, 0x01, 0x00, 0x00, 0x00, 0xfc, 0xff, 0xff, 0xff,
  0x04, 0x00, 0x04, 0x00, 0x04, 0x00, 0x00, 0x00


};

unsigned int model_tflite_len = 13052;// Fill the int in `src/model.cc` here