#include "magic_wand_model_data.h"


// We need to keep the data array aligned on some architectures.

#ifdef __has_attribute

#define HAVE_ATTRIBUTE(x) __has_attribute(x)

#else

#define HAVE_ATTRIBUTE(x) 0

#endif

#if HAVE_ATTRIBUTE(aligned) || (defined(__GNUC__) && !defined(__clang__))

#define DATA_ALIGN_ATTRIBUTE __attribute__((aligned(4)))

#else

#define DATA_ALIGN_ATTRIBUTE

#endif


const unsigned char g_magic_wand_model_data[] DATA_ALIGN_ATTRIBUTE = {

  // Paste the data of the char array in `src/model.cc` here
    0x1c, 0x00, 0x00, 0x00, 0x54, 0x46, 0x4c, 0x33, 0x14, 0x00, 0x20, 0x00,
  0x04, 0x00, 0x08, 0x00, 0x0c, 0x00, 0x10, 0x00, 0x14, 0x00, 0x00, 0x00,
  0x18, 0x00, 0x1c, 0x00, 0x14, 0x00, 0x00, 0x00, 0x03, 0x00, 0x00, 0x00,
  0x18, 0x00, 0x00, 0x00, 0x2c, 0x00, 0x00, 0x00, 0xd8, 0x00, 0x00, 0x00,
  0x2c, 0x00, 0x00, 0x00, 0x80, 0x00, 0x00, 0x00, 0x78, 0x00, 0x00, 0x00,
  0x05, 0x00, 0x00, 0x00, 0x28, 0x07, 0x00, 0x00, 0x44, 0x06, 0x00, 0x00,
  0xbc, 0x03, 0x00, 0x00, 0xf8, 0x02, 0x00, 0x00, 0xac, 0x01, 0x00, 0x00,
  0x01, 0x00, 0x00, 0x00, 0xd0, 0x00, 0x00, 0x00, 0x14, 0x00, 0x00, 0x00,
  0xdc, 0x32, 0x00, 0x00, 0xd8, 0x32, 0x00, 0x00, 0xd0, 0x31, 0x00, 0x00,
  0x1c, 0x31, 0x00, 0x00, 0x74, 0x30, 0x00, 0x00, 0xfc, 0x2f, 0x00, 0x00,
  0x90, 0x2f, 0x00, 0x00, 0x40, 0x13, 0x00, 0x00, 0xec, 0x11, 0x00, 0x00,
  0x10, 0x10, 0x00, 0x00, 0xb4, 0x07, 0x00, 0x00, 0xb0, 0x32, 0x00, 0x00,
  0xac, 0x32, 0x00, 0x00, 0xa8, 0x32, 0x00, 0x00, 0xa4, 0x32, 0x00, 0x00,
  0xa0, 0x32, 0x00, 0x00, 0x9c, 0x32, 0x00, 0x00, 0x98, 0x32, 0x00, 0x00,
  0x94, 0x32, 0x00, 0x00, 0x3c, 0x00, 0x00, 0x00, 0x00, 0x00, 0x00, 0x00,
  0x01, 0x00, 0x00, 0x00, 0x0c, 0x00, 0x00, 0x00, 0x08, 0x00, 0x0c, 0x00,
  0x04, 0x00, 0x08, 0x00, 0x08, 0x00, 0x00, 0x00, 0x08, 0x00, 0x00, 0x00,
  0x13, 0x00, 0x00, 0x00, 0x13, 0x00, 0x00, 0x00, 0x6d, 0x69, 0x6e, 0x5f,
  0x72, 0x75, 0x6e, 0x74, 0x69, 0x6d, 0x65, 0x5f, 0x76, 0x65, 0x72, 0x73,
  0x69, 0x6f, 0x6e, 0x00, 0xb6, 0xce, 0xff, 0xff, 0x04, 0x00, 0x00, 0x00,
  0x10, 0x00, 0x00, 0x00, 0x31, 0x2e, 0x35, 0x2e, 0x30, 0x00, 0x00, 0x00,
  0x00, 0x00, 0x00, 0x00, 0x00, 0x00, 0x00, 0x00, 0x0f, 0x00, 0x00, 0x00,
  0x4d, 0x4c, 0x49, 0x52, 0x20, 0x43, 0x6f, 0x6e, 0x76, 0x65, 0x72, 0x74,
  0x65, 0x64, 0x2e, 0x00, 0x00, 0x00, 0x0e, 0x00, 0x18, 0x00, 0x04, 0x00,
  0x08, 0x00, 0x0c, 0x00, 0x10, 0x00, 0x14, 0x00, 0x0e, 0x00, 0x00, 0x00,
  0x14, 0x00, 0x00, 0x00, 0x5c, 0x00, 0x00, 0x00, 0x60, 0x00, 0x00, 0x00,
  0x64, 0x00, 0x00, 0x00, 0x84, 0x00, 0x00, 0x00, 0x12, 0x00, 0x00, 0x00,
  0x9c, 0x31, 0x00, 0x00, 0x2c, 0x31, 0x00, 0x00, 0x88, 0x30, 0x00, 0x00,
  0xe0, 0x2f, 0x00, 0x00, 0x38, 0x2f, 0x00, 0x00, 0xd4, 0x2e, 0x00, 0x00,
  0x6c, 0x2e, 0x00, 0x00, 0x18, 0x12, 0x00, 0x00, 0xbc, 0x10, 0x00, 0x00,
  0xe0, 0x0e, 0x00, 0x00, 0x0c, 0x06, 0x00, 0x00, 0x28, 0x05, 0x00, 0x00,
  0xe8, 0x03, 0x00, 0x00, 0x3c, 0x03, 0x00, 0x00, 0x98, 0x02, 0x00, 0x00,
  0xd4, 0x01, 0x00, 0x00, 0x10, 0x01, 0x00, 0x00, 0x84, 0x00, 0x00, 0x00,
  0x01, 0x00, 0x00, 0x00, 0x00, 0x00, 0x00, 0x00, 0x01, 0x00, 0x00, 0x00,
  0x11, 0x00, 0x00, 0x00, 0x08, 0x00, 0x00, 0x00, 0x74, 0x05, 0x00, 0x00,
  0x94, 0x04, 0x00, 0x00, 0x78, 0x03, 0x00, 0x00, 0xbc, 0x02, 0x00, 0x00,
  0x30, 0x02, 0x00, 0x00, 0x50, 0x01, 0x00, 0x00, 0xa8, 0x00, 0x00, 0x00,
  0x10, 0x00, 0x00, 0x00, 0x04, 0x00, 0x00, 0x00, 0x6d, 0x61, 0x69, 0x6e,
  0x00, 0x00, 0x00, 0x00, 0x7a, 0xff, 0xff, 0xff, 0x00, 0x00, 0x00, 0x09,
  0x04, 0x00, 0x00, 0x00, 0x1c, 0x00, 0x00, 0x00, 0x10, 0x00, 0x00, 0x00,
  0x04, 0x00, 0x00, 0x00, 0xb2, 0xcf, 0xff, 0xff, 0x00, 0x00, 0x80, 0x3f,
  0x01, 0x00, 0x00, 0x00, 0x11, 0x00, 0x00, 0x00, 0x01, 0x00, 0x00, 0x00,
  0x10, 0x00, 0x00, 0x00, 0xa0, 0xfa, 0xff, 0xff, 0x19, 0x00, 0x00, 0x00,
  0x00, 0x00, 0x00, 0x19, 0x01, 0x00, 0x00, 0x00, 0x40, 0xcf, 0xff, 0xff,
  0x14, 0x00, 0x00, 0x00, 0x12, 0x00, 0x00, 0x00, 0x18, 0x00, 0x00, 0x00,
  0x30, 0x00, 0x00, 0x00, 0x20, 0x00, 0x00, 0x00, 0x02, 0x00, 0x00, 0x00,
  0x01, 0x00, 0x00, 0x00, 0x04, 0x00, 0x00, 0x00, 0x08, 0x00, 0x00, 0x00,
  0x49, 0x64, 0x65, 0x6e, 0x74, 0x69, 0x74, 0x79, 0x00, 0x00, 0x00, 0x00,
  0x02, 0x00, 0x00, 0x00, 0xff, 0xff, 0xff, 0xff, 0x04, 0x00, 0x00, 0x00,
  0x24, 0xd0, 0xff, 0xff, 0x00, 0x00, 0x0e, 0x00, 0x18, 0x00, 0x08, 0x00,
  0x0c, 0x00, 0x10, 0x00, 0x07, 0x00, 0x14, 0x00, 0x0e, 0x00, 0x00, 0x00,
  0x00, 0x00, 0x00, 0x08, 0x03, 0x00, 0x00, 0x00, 0x18, 0x00, 0x00, 0x00,
  0x0c, 0x00, 0x00, 0x00, 0x04, 0x00, 0x00, 0x00, 0x40, 0xcf, 0xff, 0xff,
  0x01, 0x00, 0x00, 0x00, 0x10, 0x00, 0x00, 0x00, 0x03, 0x00, 0x00, 0x00,
  0x0f, 0x00, 0x00, 0x00, 0x07, 0x00, 0x00, 0x00, 0x04, 0x00, 0x00, 0x00,
  0xc8, 0xcf, 0xff, 0xff, 0x14, 0x00, 0x00, 0x00, 0x11, 0x00, 0x00, 0x00,
  0x18, 0x00, 0x00, 0x00, 0x5c, 0x00, 0x00, 0x00, 0x4c, 0x00, 0x00, 0x00,
  0x02, 0x00, 0x00, 0x00, 0x01, 0x00, 0x00, 0x00, 0x04, 0x00, 0x00, 0x00,
  0x34, 0x00, 0x00, 0x00, 0x73, 0x65, 0x71, 0x75, 0x65, 0x6e, 0x74, 0x69,
  0x61, 0x6c, 0x2f, 0x64, 0x65, 0x6e, 0x73, 0x65, 0x5f, 0x31, 0x2f, 0x4d,
  0x61, 0x74, 0x4d, 0x75, 0x6c, 0x3b, 0x73, 0x65, 0x71, 0x75, 0x65, 0x6e,
  0x74, 0x69, 0x61, 0x6c, 0x2f, 0x64, 0x65, 0x6e, 0x73, 0x65, 0x5f, 0x31,
  0x2f, 0x42, 0x69, 0x61, 0x73, 0x41, 0x64, 0x64, 0x00, 0x00, 0x00, 0x00,
  0x02, 0x00, 0x00, 0x00, 0xff, 0xff, 0xff, 0xff, 0x04, 0x00, 0x00, 0x00,
  0xc8, 0xcf, 0xff, 0xff, 0xda, 0xfc, 0xff, 0xff, 0x00, 0x00, 0x00, 0x08,
  0x03, 0x00, 0x00, 0x00, 0x24, 0x00, 0x00, 0x00, 0x18, 0x00, 0x00, 0x00,
  0x0c, 0x00, 0x00, 0x00, 0x00, 0x00, 0x06, 0x00, 0x08, 0x00, 0x07, 0x00,
  0x06, 0x00, 0x00, 0x00, 0x00, 0x00, 0x00, 0x01, 0x01, 0x00, 0x00, 0x00,
  0x0f, 0x00, 0x00, 0x00, 0x03, 0x00, 0x00, 0x00, 0x0e, 0x00, 0x00, 0x00,
  0x06, 0x00, 0x00, 0x00, 0x03, 0x00, 0x00, 0x00, 0xe8, 0xfb, 0xff, 0xff,
  0x09, 0x00, 0x00, 0x00, 0x00, 0x00, 0x00, 0x09, 0x01, 0x00, 0x00, 0x00,
  0x88, 0xd0, 0xff, 0xff, 0x14, 0x00, 0x00, 0x00, 0x10, 0x00, 0x00, 0x00,
  0x18, 0x00, 0x00, 0x00, 0x6c, 0x00, 0x00, 0x00, 0x5c, 0x00, 0x00, 0x00,
  0x02, 0x00, 0x00, 0x00, 0x01, 0x00, 0x00, 0x00, 0x10, 0x00, 0x00, 0x00,
  0x46, 0x00, 0x00, 0x00, 0x73, 0x65, 0x71, 0x75, 0x65, 0x6e, 0x74, 0x69,
  0x61, 0x6c, 0x2f, 0x64, 0x65, 0x6e, 0x73, 0x65, 0x2f, 0x4d, 0x61, 0x74,
  0x4d, 0x75, 0x6c, 0x3b, 0x73, 0x65, 0x71, 0x75, 0x65, 0x6e, 0x74, 0x69,
  0x61, 0x6c, 0x2f, 0x64, 0x65, 0x6e, 0x73, 0x65, 0x2f, 0x52, 0x65, 0x6c,
  0x75, 0x3b, 0x73, 0x65, 0x71, 0x75, 0x65, 0x6e, 0x74, 0x69, 0x61, 0x6c,
  0x2f, 0x64, 0x65, 0x6e, 0x73, 0x65, 0x2f, 0x42, 0x69, 0x61, 0x73, 0x41,
  0x64, 0x64, 0x00, 0x00, 0x02, 0x00, 0x00, 0x00, 0xff, 0xff, 0xff, 0xff,
  0x10, 0x00, 0x00, 0x00, 0xa8, 0xd1, 0xff, 0xff, 0x00, 0x00, 0x0a, 0x00,
  0x10, 0x00, 0x04, 0x00, 0x08, 0x00, 0x0c, 0x00, 0x0a, 0x00, 0x00, 0x00,
  0x02, 0x00, 0x00, 0x00, 0x10, 0x00, 0x00, 0x00, 0x04, 0x00, 0x00, 0x00,
  0x01, 0x00, 0x00, 0x00, 0x0e, 0x00, 0x00, 0x00, 0x02, 0x00, 0x00, 0x00,
  0x0d, 0x00, 0x00, 0x00, 0x05, 0x00, 0x00, 0x00, 0xa8, 0xfc, 0xff, 0xff,
  0x16, 0x00, 0x00, 0x00, 0x00, 0x00, 0x00, 0x16, 0x01, 0x00, 0x00, 0x00,
  0x48, 0xd1, 0xff, 0xff, 0x14, 0x00, 0x00, 0x00, 0x0f, 0x00, 0x00, 0x00,
  0x18, 0x00, 0x00, 0x00, 0x40, 0x00, 0x00, 0x00, 0x30, 0x00, 0x00, 0x00,
  0x02, 0x00, 0x00, 0x00, 0x01, 0x00, 0x00, 0x00, 0x70, 0x00, 0x00, 0x00,
  0x1a, 0x00, 0x00, 0x00, 0x73, 0x65, 0x71, 0x75, 0x65, 0x6e, 0x74, 0x69,
  0x61, 0x6c, 0x2f, 0x66, 0x6c, 0x61, 0x74, 0x74, 0x65, 0x6e, 0x2f, 0x52,
  0x65, 0x73, 0x68, 0x61, 0x70, 0x65, 0x00, 0x00, 0x02, 0x00, 0x00, 0x00,
  0xff, 0xff, 0xff, 0xff, 0x70, 0x00, 0x00, 0x00, 0x2c, 0xd1, 0xff, 0xff,
  0x3e, 0xfe, 0xff, 0xff, 0x00, 0x00, 0x00, 0x05, 0x01, 0x00, 0x00, 0x00,
  0x38, 0x00, 0x00, 0x00, 0x2c, 0x00, 0x00, 0x00, 0x14, 0x00, 0x00, 0x00,
  0x00, 0x00, 0x0e, 0x00, 0x14, 0x00, 0x00, 0x00, 0x10, 0x00, 0x0c, 0x00,
  0x08, 0x00, 0x04, 0x00, 0x0e, 0x00, 0x00, 0x00, 0x03, 0x00, 0x00, 0x00,
  0x01, 0x00, 0x00, 0x00, 0x03, 0x00, 0x00, 0x00, 0x01, 0x00, 0x00, 0x00,
  0x01, 0x00, 0x00, 0x00, 0x0d, 0x00, 0x00, 0x00, 0x01, 0x00, 0x00, 0x00,
  0x0c, 0x00, 0x00, 0x00, 0xe8, 0xd1, 0xff, 0xff, 0x14, 0x00, 0x00, 0x00,
  0x0e, 0x00, 0x00, 0x00, 0x20, 0x00, 0x00, 0x00, 0x58, 0x00, 0x00, 0x00,
  0x40, 0x00, 0x00, 0x00, 0x04, 0x00, 0x00, 0x00, 0x01, 0x00, 0x00, 0x00,
  0x07, 0x00, 0x00, 0x00, 0x01, 0x00, 0x00, 0x00, 0x10, 0x00, 0x00, 0x00,
  0x22, 0x00, 0x00, 0x00, 0x73, 0x65, 0x71, 0x75, 0x65, 0x6e, 0x74, 0x69,
  0x61, 0x6c, 0x2f, 0x6d, 0x61, 0x78, 0x5f, 0x70, 0x6f, 0x6f, 0x6c, 0x69,
  0x6e, 0x67, 0x32, 0x64, 0x5f, 0x31, 0x2f, 0x4d, 0x61, 0x78, 0x50, 0x6f,
  0x6f, 0x6c, 0x00, 0x00, 0x04, 0x00, 0x00, 0x00, 0xff, 0xff, 0xff, 0xff,
  0x07, 0x00, 0x00, 0x00, 0x01, 0x00, 0x00, 0x00, 0x10, 0x00, 0x00, 0x00,
  0xe4, 0xd1, 0xff, 0xff, 0x1a, 0xfe, 0xff, 0xff, 0x00, 0x00, 0x00, 0x01,
  0x24, 0x00, 0x00, 0x00, 0x18, 0x00, 0x00, 0x00, 0x04, 0x00, 0x00, 0x00,
  0x0c, 0xfe, 0xff, 0xff, 0x01, 0x00, 0x00, 0x00, 0x01, 0x00, 0x00, 0x00,
  0x00, 0x00, 0x00, 0x01, 0x01, 0x00, 0x00, 0x00, 0x0c, 0x00, 0x00, 0x00,
  0x03, 0x00, 0x00, 0x00, 0x0b, 0x00, 0x00, 0x00, 0x09, 0x00, 0x00, 0x00,
  0x02, 0x00, 0x00, 0x00, 0x90, 0xd2, 0xff, 0xff, 0x14, 0x00, 0x00, 0x00,
  0x0d, 0x00, 0x00, 0x00, 0x20, 0x00, 0x00, 0x00, 0xb8, 0x00, 0x00, 0x00,
  0xa0, 0x00, 0x00, 0x00, 0x04, 0x00, 0x00, 0x00, 0x01, 0x00, 0x00, 0x00,
  0x15, 0x00, 0x00, 0x00, 0x01, 0x00, 0x00, 0x00, 0x10, 0x00, 0x00, 0x00,
  0x83, 0x00, 0x00, 0x00, 0x73, 0x65, 0x71, 0x75, 0x65, 0x6e, 0x74, 0x69,
  0x61, 0x6c, 0x2f, 0x63, 0x6f, 0x6e, 0x76, 0x32, 0x64, 0x5f, 0x31, 0x2f,
  0x52, 0x65, 0x6c, 0x75, 0x3b, 0x73, 0x65, 0x71, 0x75, 0x65, 0x6e, 0x74,
  0x69, 0x61, 0x6c, 0x2f, 0x63, 0x6f, 0x6e, 0x76, 0x32, 0x64, 0x5f, 0x31,
  0x2f, 0x42, 0x69, 0x61, 0x73, 0x41, 0x64, 0x64, 0x3b, 0x73, 0x65, 0x71,
  0x75, 0x65, 0x6e, 0x74, 0x69, 0x61, 0x6c, 0x2f, 0x63, 0x6f, 0x6e, 0x76,
  0x32, 0x64, 0x5f, 0x31, 0x2f, 0x43, 0x6f, 0x6e, 0x76, 0x32, 0x44, 0x3b,
  0x73, 0x65, 0x71, 0x75, 0x65, 0x6e, 0x74, 0x69, 0x61, 0x6c, 0x2f, 0x63,
  0x6f, 0x6e, 0x76, 0x32, 0x64, 0x5f, 0x31, 0x2f, 0x42, 0x69, 0x61, 0x73,
  0x41, 0x64, 0x64, 0x2f, 0x52, 0x65, 0x61, 0x64, 0x56, 0x61, 0x72, 0x69,
  0x61, 0x62, 0x6c, 0x65, 0x4f, 0x70, 0x2f, 0x72, 0x65, 0x73, 0x6f, 0x75,
  0x72, 0x63, 0x65, 0x00, 0x04, 0x00, 0x00, 0x00, 0xff, 0xff, 0xff, 0xff,
  0x15, 0x00, 0x00, 0x00, 0x01, 0x00, 0x00, 0x00, 0x10, 0x00, 0x00, 0x00,
  0xfc, 0xd3, 0xff, 0xff, 0x00, 0x00, 0x0e, 0x00, 0x1a, 0x00, 0x08, 0x00,
  0x0c, 0x00, 0x10, 0x00, 0x07, 0x00, 0x14, 0x00, 0x0e, 0x00, 0x00, 0x00,
  0x00, 0x00, 0x00, 0x05, 0x01, 0x00, 0x00, 0x00, 0x3c, 0x00, 0x00, 0x00,
  0x30, 0x00, 0x00, 0x00, 0x14, 0x00, 0x00, 0x00, 0x00, 0x00, 0x0e, 0x00,
  0x18, 0x00, 0x17, 0x00, 0x10, 0x00, 0x0c, 0x00, 0x08, 0x00, 0x04, 0x00,
  0x0e, 0x00, 0x00, 0x00, 0x03, 0x00, 0x00, 0x00, 0x03, 0x00, 0x00, 0x00,
  0x03, 0x00, 0x00, 0x00, 0x03, 0x00, 0x00, 0x00, 0x00, 0x00, 0x00, 0x01,
  0x01, 0x00, 0x00, 0x00, 0x0b, 0x00, 0x00, 0x00, 0x01, 0x00, 0x00, 0x00,
  0x0a, 0x00, 0x00, 0x00, 0x2c, 0xff, 0xff, 0xff, 0x11, 0x00, 0x00, 0x00,
  0x00, 0x00, 0x00, 0x11, 0x01, 0x00, 0x00, 0x00, 0xcc, 0xd3, 0xff, 0xff,
  0x14, 0x00, 0x00, 0x00, 0x0c, 0x00, 0x00, 0x00, 0x20, 0x00, 0x00, 0x00,
  0x58, 0x00, 0x00, 0x00, 0x40, 0x00, 0x00, 0x00, 0x04, 0x00, 0x00, 0x00,
  0x01, 0x00, 0x00, 0x00, 0x15, 0x00, 0x00, 0x00, 0x01, 0x00, 0x00, 0x00,
  0x08, 0x00, 0x00, 0x00, 0x20, 0x00, 0x00, 0x00, 0x73, 0x65, 0x71, 0x75,
  0x65, 0x6e, 0x74, 0x69, 0x61, 0x6c, 0x2f, 0x6d, 0x61, 0x78, 0x5f, 0x70,
  0x6f, 0x6f, 0x6c, 0x69, 0x6e, 0x67, 0x32, 0x64, 0x2f, 0x4d, 0x61, 0x78,
  0x50, 0x6f, 0x6f, 0x6c, 0x00, 0x00, 0x00, 0x00, 0x04, 0x00, 0x00, 0x00,
  0xff, 0xff, 0xff, 0xff, 0x15, 0x00, 0x00, 0x00, 0x01, 0x00, 0x00, 0x00,
  0x08, 0x00, 0x00, 0x00, 0xd8, 0xd4, 0xff, 0xff, 0x00, 0x00, 0x0e, 0x00,
  0x14, 0x00, 0x00, 0x00, 0x08, 0x00, 0x0c, 0x00, 0x07, 0x00, 0x10, 0x00,
  0x0e, 0x00, 0x00, 0x00, 0x00, 0x00, 0x00, 0x01, 0x30, 0x00, 0x00, 0x00,
  0x24, 0x00, 0x00, 0x00, 0x10, 0x00, 0x00, 0x00, 0x0c, 0x00, 0x10, 0x00,
  0x00, 0x00, 0x04, 0x00, 0x08, 0x00, 0x0f, 0x00, 0x0c, 0x00, 0x00, 0x00,
  0x01, 0x00, 0x00, 0x00, 0x01, 0x00, 0x00, 0x00, 0x00, 0x00, 0x00, 0x01,
  0x01, 0x00, 0x00, 0x00, 0x0a, 0x00, 0x00, 0x00, 0x03, 0x00, 0x00, 0x00,
  0x00, 0x00, 0x00, 0x00, 0x08, 0x00, 0x00, 0x00, 0x01, 0x00, 0x00, 0x00,
  0x0c, 0x00, 0x10, 0x00, 0x0b, 0x00, 0x00, 0x00, 0x0c, 0x00, 0x04, 0x00,
  0x0c, 0x00, 0x00, 0x00, 0x03, 0x00, 0x00, 0x00, 0x00, 0x00, 0x00, 0x03,
  0x01, 0x00, 0x00, 0x00, 0xac, 0xd4, 0xff, 0xff, 0x14, 0x00, 0x00, 0x00,
  0x0b, 0x00, 0x00, 0x00, 0x20, 0x00, 0x00, 0x00, 0xb0, 0x00, 0x00, 0x00,
  0x98, 0x00, 0x00, 0x00, 0x04, 0x00, 0x00, 0x00, 0x01, 0x00, 0x00, 0x00,
  0x40, 0x00, 0x00, 0x00, 0x03, 0x00, 0x00, 0x00, 0x08, 0x00, 0x00, 0x00,
  0x7b, 0x00, 0x00, 0x00, 0x73, 0x65, 0x71, 0x75, 0x65, 0x6e, 0x74, 0x69,
  0x61, 0x6c, 0x2f, 0x63, 0x6f, 0x6e, 0x76, 0x32, 0x64, 0x2f, 0x52, 0x65,
  0x6c, 0x75, 0x3b, 0x73, 0x65, 0x71, 0x75, 0x65, 0x6e, 0x74, 0x69, 0x61,
  0x6c, 0x2f, 0x63, 0x6f, 0x6e, 0x76, 0x32, 0x64, 0x2f, 0x42, 0x69, 0x61,
  0x73, 0x41, 0x64, 0x64, 0x3b, 0x73, 0x65, 0x71, 0x75, 0x65, 0x6e, 0x74,
  0x69, 0x61, 0x6c, 0x2f, 0x63, 0x6f, 0x6e, 0x76, 0x32, 0x64, 0x2f, 0x43,
  0x6f, 0x6e, 0x76, 0x32, 0x44, 0x3b, 0x73, 0x65, 0x71, 0x75, 0x65, 0x6e,
  0x74, 0x69, 0x61, 0x6c, 0x2f, 0x63, 0x6f, 0x6e, 0x76, 0x32, 0x64, 0x2f,
  0x42, 0x69, 0x61, 0x73, 0x41, 0x64, 0x64, 0x2f, 0x52, 0x65, 0x61, 0x64,
  0x56, 0x61, 0x72, 0x69, 0x61, 0x62, 0x6c, 0x65, 0x4f, 0x70, 0x2f, 0x72,
  0x65, 0x73, 0x6f, 0x75, 0x72, 0x63, 0x65, 0x00, 0x04, 0x00, 0x00, 0x00,
  0xff, 0xff, 0xff, 0xff, 0x40, 0x00, 0x00, 0x00, 0x03, 0x00, 0x00, 0x00,
  0x08, 0x00, 0x00, 0x00, 0x00, 0xd5, 0xff, 0xff, 0x0a, 0xd6, 0xff, 0xff,
  0x04, 0x00, 0x00, 0x00, 0x00, 0x08, 0x00, 0x00, 0x1a, 0x71, 0x9d, 0xbd,
  0x57, 0x98, 0xb8, 0x3c, 0xc0, 0xe5, 0xba, 0xbd, 0xe7, 0x40, 0xc7, 0xbe,
  0x2f, 0x63, 0xb3, 0xbe, 0xbc, 0x44, 0xda, 0xbd, 0xc7, 0xb5, 0xc5, 0xbd,
  0xfe, 0xeb, 0x5e, 0x3a, 0x34, 0x26, 0x02, 0x3f, 0xec, 0xc9, 0x90, 0xbd,
  0x48, 0x37, 0x17, 0xbe, 0x46, 0x48, 0xc8, 0xbd, 0xc8, 0xff, 0x8b, 0xbe,
  0x94, 0x14, 0x84, 0x3e, 0x38, 0x75, 0xd5, 0xbd, 0x00, 0xc2, 0x9a, 0xbc,
  0x00, 0xd1, 0x5c, 0x3d, 0xd3, 0x24, 0x03, 0xbe, 0xe6, 0x64, 0x4b, 0xbd,
  0x49, 0xe6, 0xd6, 0x3b, 0x5b, 0x74, 0xda, 0xbe, 0x24, 0x42, 0xe0, 0xbe,
  0x77, 0xaf, 0xb3, 0xbc, 0x1b, 0xc4, 0x13, 0xbd, 0x77, 0x02, 0xf0, 0xbd,
  0x68, 0x87, 0x98, 0xbd, 0x06, 0xd1, 0xbb, 0x3c, 0xc0, 0x94, 0x20, 0xbe,
  0x7e, 0x8a, 0xb8, 0xbe, 0x1f, 0x21, 0x40, 0x3e, 0x7d, 0xd1, 0xbf, 0xbd,
  0xa4, 0x52, 0x81, 0xbd, 0x10, 0x69, 0x92, 0xbe, 0x61, 0x9e, 0xbd, 0xbe,
  0x83, 0x20, 0x90, 0xbe, 0x13, 0xc0, 0xb3, 0x3e, 0x0b, 0xca, 0xef, 0xbd,
  0x89, 0xb2, 0x0a, 0x3f, 0x92, 0x5d, 0xe2, 0xbc, 0x9b, 0x97, 0x16, 0xbe,
  0x6a, 0x70, 0x91, 0xbd, 0xd6, 0xeb, 0x17, 0xbe, 0xf3, 0xe0, 0xa3, 0xbd,
  0xa0, 0x67, 0x18, 0x3d, 0xdc, 0x07, 0xc8, 0xbe, 0x2b, 0xdf, 0xdf, 0x3d,
  0xed, 0x21, 0xd6, 0x3e, 0xb7, 0x44, 0x14, 0x3c, 0x44, 0x7a, 0x80, 0x3c,
  0x09, 0xb0, 0x96, 0x3d, 0x29, 0x9f, 0x0c, 0xbc, 0xa9, 0x5f, 0x31, 0x3d,
  0xcf, 0xbe, 0x73, 0xbd, 0x2d, 0xb5, 0xa4, 0xbe, 0x8d, 0x32, 0x5a, 0xbe,
  0x98, 0x36, 0xc0, 0x3c, 0xd3, 0xab, 0x9d, 0x3b, 0xfe, 0x3b, 0xae, 0x3d,
  0xd2, 0x4e, 0x07, 0x3e, 0xad, 0x37, 0xfc, 0xbd, 0x75, 0x1e, 0xaa, 0x3d,
  0x1b, 0xda, 0xb9, 0xbe, 0xca, 0xa0, 0xaa, 0xbe, 0x3a, 0x32, 0xaa, 0xbd,
  0xb5, 0x23, 0x9a, 0x3c, 0x0b, 0x7b, 0x3c, 0xbe, 0x96, 0x4f, 0xda, 0xbc,
  0x69, 0x9b, 0x79, 0xbe, 0x81, 0xa2, 0x51, 0x3f, 0xdf, 0x41, 0x8d, 0xbe,
  0x5c, 0x64, 0xc7, 0xbd, 0xaa, 0xcf, 0x9e, 0xbe, 0x41, 0xcb, 0x0c, 0xbf,
  0xa7, 0x56, 0xeb, 0xbe, 0x38, 0x1f, 0x11, 0xbf, 0x78, 0xaf, 0xf7, 0x3c,
  0x36, 0x4b, 0xcc, 0x3e, 0x0a, 0xb8, 0xc9, 0x3e, 0x26, 0xe9, 0x71, 0x3d,
  0xfb, 0x7b, 0x46, 0xbf, 0x1e, 0x97, 0xfd, 0xbd, 0xb5, 0x34, 0x4d, 0xbe,
  0x0f, 0xfc, 0xd1, 0x3d, 0x6c, 0x97, 0x19, 0x3e, 0x4d, 0xae, 0x91, 0xbe,
  0xc3, 0xf0, 0xe3, 0x3d, 0xea, 0x83, 0x3b, 0x3e, 0x7e, 0x89, 0x3d, 0xbe,
  0xe9, 0x86, 0xf4, 0x3d, 0xe8, 0xdc, 0xcb, 0x3c, 0x10, 0x43, 0x79, 0x3e,
  0x18, 0xe1, 0x92, 0xbb, 0xcd, 0xa1, 0x68, 0x3d, 0xea, 0xc3, 0x6f, 0xbd,
  0x86, 0x40, 0x81, 0x3b, 0x99, 0xb5, 0x1b, 0x3d, 0x51, 0xd6, 0xd8, 0x3d,
  0x84, 0x74, 0x18, 0xbe, 0x9a, 0x6d, 0x82, 0x3e, 0x9a, 0xe0, 0x23, 0xbe,
  0xce, 0x83, 0x9b, 0xbe, 0xdf, 0x1a, 0x0c, 0xbe, 0x51, 0xda, 0xb7, 0xbd,
  0x64, 0x9b, 0x57, 0xbd, 0xa6, 0x82, 0xf0, 0x3d, 0x8e, 0xb6, 0x07, 0xbe,
  0x83, 0xad, 0x4e, 0x3e, 0x3c, 0x3a, 0x49, 0xbd, 0x89, 0x27, 0x9a, 0xbe,
  0xad, 0x7c, 0x68, 0x3e, 0x0a, 0xd4, 0xd0, 0xbb, 0x68, 0xa2, 0x20, 0x3b,
  0xfe, 0x33, 0xd3, 0xbe, 0x97, 0x6c, 0x25, 0xbf, 0x3c, 0xd7, 0xb9, 0xbe,
  0x98, 0x8c, 0x2c, 0xbe, 0x88, 0x24, 0xb0, 0xbe, 0xa5, 0x47, 0xc8, 0x3d,
  0x15, 0x4a, 0x90, 0xbe, 0x9d, 0x7b, 0xb3, 0xbd, 0x9d, 0xbb, 0x93, 0xbe,
  0xa6, 0xb7, 0x39, 0xbf, 0xdd, 0xba, 0xbf, 0xbe, 0xba, 0x85, 0x47, 0x3e,
  0xde, 0x7d, 0x72, 0xbe, 0x76, 0xd5, 0x6b, 0xbd, 0xed, 0xcd, 0x84, 0xbb,
  0xc9, 0x85, 0xee, 0xbd, 0xdd, 0xa8, 0x67, 0xbd, 0x36, 0x6c, 0x8e, 0x3e,
  0x38, 0x82, 0x5e, 0xbd, 0x28, 0x17, 0x2f, 0x3d, 0x0c, 0x46, 0x89, 0x3e,
  0x2d, 0x53, 0xcc, 0x3d, 0x56, 0xbd, 0xf6, 0x3d, 0x5a, 0xbc, 0xab, 0xbd,
  0x57, 0x63, 0x68, 0xbd, 0x49, 0x75, 0x46, 0xbd, 0x97, 0x27, 0x36, 0xbd,
  0xd0, 0xa5, 0xcf, 0xbb, 0x73, 0x64, 0xb3, 0x3c, 0xed, 0x04, 0x2d, 0x3e,
  0x17, 0xed, 0x91, 0x3e, 0x6e, 0x0d, 0x06, 0xbe, 0x8a, 0x67, 0x23, 0xbd,
  0xb9, 0xa3, 0x85, 0x3d, 0xb0, 0x3a, 0x08, 0x3c, 0xd2, 0xae, 0x80, 0x3e,
  0xf4, 0x8d, 0x15, 0x3d, 0xd3, 0xc7, 0x01, 0x3e, 0xc0, 0x5e, 0xed, 0xbd,
  0x88, 0x9b, 0x15, 0xbe, 0xc8, 0xb8, 0x05, 0xbd, 0x4a, 0xc0, 0x9c, 0xbc,
  0x21, 0xeb, 0x66, 0x3e, 0x6c, 0xa5, 0x5a, 0xbd, 0x3a, 0xca, 0xff, 0xbd,
  0x05, 0x7f, 0x1d, 0x3e, 0x23, 0xdb, 0x47, 0x3c, 0xd1, 0xc2, 0xa0, 0xbd,
  0x9b, 0xfd, 0x8a, 0xbe, 0x4d, 0x83, 0xc2, 0xbd, 0x01, 0x60, 0xfb, 0xbe,
  0x5d, 0xd9, 0xac, 0xbe, 0xc2, 0xaf, 0x4b, 0x3e, 0xbd, 0x51, 0xc5, 0x3b,
  0x62, 0x35, 0xc5, 0xbe, 0x31, 0x22, 0x30, 0xbf, 0x4e, 0xc1, 0x16, 0xbf,
  0x74, 0x25, 0x23, 0xbf, 0x19, 0xe4, 0xf4, 0xbe, 0x84, 0x96, 0xcf, 0x3b,
  0xf4, 0xe0, 0xb2, 0xbe, 0xbc, 0xbe, 0x89, 0x3e, 0x50, 0xf9, 0x79, 0x3e,
  0xfb, 0x25, 0x3d, 0xbf, 0x9c, 0xb4, 0x88, 0x3d, 0xe0, 0xc2, 0xaa, 0xbd,
  0x05, 0x0f, 0xdc, 0x3d, 0x22, 0xd4, 0x28, 0x3e, 0x63, 0x46, 0xc5, 0xbc,
  0x5c, 0xa0, 0xd8, 0x3c, 0x78, 0xf4, 0x1e, 0x3e, 0x46, 0xd5, 0xbc, 0xbc,
  0x47, 0x97, 0x03, 0x3e, 0xed, 0x91, 0x1d, 0x3e, 0x9d, 0xb6, 0x1f, 0x3e,
  0xbf, 0x8c, 0x91, 0x3e, 0x6b, 0x4e, 0x8a, 0xbd, 0xca, 0x77, 0x0c, 0x3e,
  0xad, 0xa9, 0x27, 0xbe, 0x19, 0x47, 0xaf, 0x3d, 0x3b, 0x89, 0x4a, 0xbd,
  0x8a, 0x18, 0xa3, 0x3e, 0x19, 0xc5, 0xd4, 0xbe, 0x4c, 0x29, 0x61, 0x3b,
  0x6b, 0xbf, 0x79, 0xbd, 0x33, 0x30, 0xd7, 0xbe, 0x81, 0xa3, 0x60, 0x3d,
  0x0c, 0xb4, 0x09, 0xbd, 0xcd, 0x06, 0xa5, 0xbc, 0x81, 0x25, 0x8f, 0xbc,
  0x30, 0xd4, 0xb9, 0xbe, 0xaf, 0xc2, 0xb6, 0xbd, 0xa6, 0xbe, 0x3a, 0x3d,
  0x3c, 0x67, 0x4e, 0xbe, 0x08, 0xbe, 0x1e, 0x3d, 0xda, 0xb3, 0xa8, 0x3b,
  0x4d, 0xf1, 0xad, 0xbc, 0xd3, 0x55, 0xf6, 0xbd, 0x8d, 0x6d, 0xc0, 0xbe,
  0xc5, 0x68, 0xa7, 0xbc, 0x06, 0x2d, 0xb2, 0x3d, 0x81, 0x15, 0x37, 0xbe,
  0x24, 0x09, 0x93, 0xbd, 0xcc, 0xd4, 0x6b, 0x3c, 0x08, 0x31, 0xa3, 0xbc,
  0x04, 0x97, 0xa9, 0x3e, 0x7f, 0xc4, 0x16, 0xbe, 0x8f, 0x0a, 0x62, 0xbe,
  0x87, 0x2e, 0xae, 0xbc, 0xf6, 0xcc, 0x81, 0xbe, 0x48, 0x2f, 0x8b, 0xbd,
  0xa4, 0x4b, 0x6d, 0xbc, 0x6c, 0xb3, 0x40, 0xbe, 0x65, 0xce, 0xdc, 0x3e,
  0x8e, 0x5c, 0x0e, 0xbf, 0xf1, 0x9a, 0x97, 0x3e, 0x03, 0xc9, 0x8d, 0x3b,
  0xbe, 0x12, 0x80, 0xbd, 0xf7, 0x56, 0x96, 0xbd, 0x00, 0x7b, 0x8a, 0xbc,
  0xe1, 0xce, 0x5a, 0xbe, 0x8d, 0x3f, 0x9b, 0xbc, 0x4d, 0xd8, 0x19, 0xbf,
  0xae, 0x1f, 0x61, 0xbd, 0x7a, 0x82, 0x58, 0x3e, 0xbd, 0x98, 0x57, 0xbd,
  0x7b, 0xa5, 0x26, 0x3e, 0xa2, 0xb7, 0x93, 0xbd, 0xf2, 0xe3, 0x46, 0xbe,
  0xd2, 0xd9, 0x9d, 0x3d, 0xef, 0x11, 0x13, 0xbf, 0x45, 0x19, 0x84, 0x3c,
  0xd0, 0x1e, 0x34, 0x3d, 0x77, 0x3a, 0xca, 0xbd, 0x94, 0xaf, 0x43, 0x3e,
  0x7a, 0x58, 0xca, 0xbd, 0x31, 0x1c, 0x45, 0xbe, 0xbf, 0x0b, 0xc0, 0xbc,
  0x14, 0xb9, 0x07, 0xbd, 0x0b, 0x83, 0x8c, 0x3d, 0x43, 0xc5, 0xd1, 0xbd,
  0xc3, 0x1c, 0x4e, 0xbd, 0x09, 0x0e, 0x2e, 0xbd, 0x5f, 0x73, 0xe2, 0xbd,
  0x2e, 0x8d, 0x51, 0x3c, 0x53, 0xb2, 0xd8, 0xbd, 0xb0, 0x51, 0xc1, 0x3b,
  0xe3, 0x48, 0xa6, 0xbe, 0x42, 0x2a, 0x1c, 0x3d, 0xc3, 0xb4, 0x54, 0xbe,
  0xae, 0xdd, 0x25, 0xbe, 0x7d, 0xe6, 0xce, 0xbe, 0x34, 0x72, 0x18, 0xbe,
  0x77, 0x53, 0x62, 0xbd, 0x52, 0x42, 0xbb, 0xbe, 0x54, 0x34, 0x49, 0xbf,
  0x5b, 0x69, 0x23, 0x3f, 0x2f, 0x73, 0x41, 0x3e, 0x3f, 0xb1, 0x3b, 0xbf,
  0x41, 0xed, 0xca, 0xbe, 0x8c, 0x33, 0xb2, 0xbe, 0x88, 0x5c, 0x8f, 0xbe,
  0x74, 0x37, 0xc2, 0xbe, 0x8a, 0xd4, 0x5d, 0x3c, 0x73, 0xe6, 0x27, 0xbb,
  0xaf, 0x2c, 0xb7, 0x3d, 0x81, 0x9f, 0x3c, 0x3d, 0x69, 0x49, 0x89, 0xbe,
  0xb4, 0x21, 0x87, 0x3d, 0xad, 0xea, 0x11, 0xbd, 0x8a, 0x50, 0xa7, 0x3e,
  0xb0, 0xfe, 0x5d, 0x3e, 0x00, 0x88, 0x89, 0xbd, 0x74, 0x76, 0x67, 0x3d,
  0x09, 0xb4, 0xfb, 0x3d, 0xbc, 0x07, 0x1a, 0x3e, 0x9c, 0x7f, 0x6a, 0xbe,
  0x14, 0xba, 0xaf, 0xbe, 0x85, 0x01, 0x14, 0x3e, 0x4e, 0x6a, 0xd2, 0x3e,
  0xc8, 0x5f, 0x34, 0x3e, 0x04, 0x54, 0x72, 0x3e, 0x48, 0xa8, 0xf0, 0x3d,
  0x80, 0xd7, 0x75, 0xbd, 0xf2, 0x17, 0x19, 0xbe, 0x8c, 0xa5, 0xa1, 0xbe,
  0xf7, 0x1a, 0x8b, 0x3d, 0xe6, 0xe7, 0xbc, 0xbd, 0xb6, 0xab, 0xca, 0xbc,
  0x7c, 0x38, 0xa9, 0x3e, 0x2c, 0xab, 0x7d, 0x3d, 0x4c, 0x1a, 0xae, 0xbb,
  0xd0, 0x0a, 0x3d, 0xbe, 0x29, 0x29, 0x8d, 0xbe, 0x17, 0x1d, 0x17, 0xbd,
  0xa9, 0xa4, 0xd7, 0x3d, 0xeb, 0x0f, 0x30, 0x3e, 0x44, 0xa6, 0x28, 0x3e,
  0x5b, 0x5d, 0x38, 0x3e, 0x13, 0x0d, 0xf1, 0xbd, 0xcf, 0x94, 0x28, 0xbe,
  0xe0, 0x32, 0x41, 0xbe, 0xdc, 0x13, 0xfe, 0xbc, 0x5a, 0x93, 0xd0, 0xbc,
  0x6a, 0x5a, 0x50, 0x3e, 0x42, 0x40, 0xad, 0x3e, 0x94, 0x66, 0x0b, 0x3e,
  0xe0, 0xb0, 0xb0, 0xbd, 0x61, 0xf1, 0x05, 0xbe, 0xcc, 0x1d, 0xd4, 0x3d,
  0xc2, 0x54, 0xc0, 0xbe, 0xee, 0xc8, 0x1e, 0x3d, 0xdb, 0x7c, 0x04, 0x3e,
  0xc2, 0x75, 0xaf, 0xbe, 0xb6, 0xc1, 0xd1, 0xbd, 0x2c, 0x6a, 0xde, 0x3e,
  0x53, 0xc5, 0x39, 0xbe, 0xdd, 0xf9, 0xd0, 0xbd, 0xea, 0xad, 0xdd, 0xbe,
  0xf0, 0x6c, 0xa5, 0x3e, 0x47, 0xb3, 0x7b, 0x3e, 0x54, 0x3f, 0x31, 0xbe,
  0x00, 0x8d, 0x92, 0xbd, 0x42, 0x11, 0xe0, 0xbd, 0xe3, 0x11, 0x1c, 0xbe,
  0x90, 0x9a, 0x62, 0xbd, 0x1c, 0xe6, 0x54, 0xbd, 0x53, 0xc3, 0x3f, 0x3e,
  0xd5, 0xd8, 0x14, 0xbe, 0x4f, 0xa1, 0x96, 0x3d, 0x3d, 0xa9, 0xf6, 0x3d,
  0xb3, 0x77, 0x03, 0xbd, 0xa4, 0x52, 0x17, 0xbd, 0x95, 0xa6, 0x3e, 0x3e,
  0xf6, 0xc5, 0x1d, 0xbd, 0xff, 0xc6, 0xe7, 0x3d, 0xbc, 0x03, 0x1f, 0xbc,
  0x3c, 0xd6, 0x2b, 0xbe, 0xea, 0xd1, 0x89, 0x3d, 0x0c, 0x0d, 0xd8, 0x3a,
  0xf6, 0x1d, 0x4f, 0xbe, 0x62, 0xf5, 0xe9, 0xbd, 0xe8, 0x90, 0x37, 0x3d,
  0x18, 0x64, 0xf4, 0xbd, 0xa6, 0x10, 0xb1, 0xbe, 0x18, 0x97, 0x63, 0xbe,
  0x34, 0x3f, 0xb3, 0xbd, 0x35, 0x92, 0x8d, 0xbe, 0x66, 0x94, 0x88, 0xbd,
  0xcb, 0x9f, 0x01, 0xbe, 0xc7, 0x48, 0x1e, 0xbe, 0x8a, 0x6d, 0x08, 0xbe,
  0x93, 0x9c, 0xa2, 0xbd, 0xcc, 0x79, 0x03, 0xbd, 0x69, 0x3e, 0x5b, 0xbd,
  0xfd, 0x34, 0x36, 0xbe, 0xc3, 0xcd, 0xb8, 0xbd, 0xbb, 0x06, 0xdf, 0xbd,
  0xa4, 0x26, 0xa5, 0x3d, 0x10, 0x14, 0xcd, 0x3c, 0x5f, 0xd6, 0x99, 0xbd,
  0xec, 0xc9, 0x03, 0xbe, 0xbb, 0xe4, 0x81, 0xbe, 0x12, 0xc6, 0x1f, 0xbe,
  0x45, 0xed, 0xaa, 0xbe, 0x1a, 0x74, 0x0f, 0xbc, 0xc0, 0xcc, 0x68, 0xbe,
  0xf1, 0xa0, 0x82, 0xbe, 0x71, 0x0d, 0x4c, 0xbe, 0x4a, 0x41, 0xbd, 0xbd,
  0x68, 0xe8, 0xb9, 0x3d, 0x9e, 0x24, 0x69, 0x3e, 0xe6, 0x80, 0x47, 0xbd,
  0x81, 0x9e, 0x9c, 0xbd, 0x3a, 0x9d, 0x05, 0xbe, 0xae, 0x66, 0x7d, 0xbe,
  0xc0, 0x65, 0x8f, 0xbe, 0xc4, 0x61, 0xe7, 0xbe, 0x4a, 0x0d, 0xbd, 0xbe,
  0xf8, 0x27, 0xae, 0xbd, 0xcf, 0x78, 0x40, 0xbd, 0xf7, 0x2d, 0x96, 0xbd,
  0x45, 0xa6, 0xe6, 0xbd, 0xa6, 0x82, 0x45, 0xbd, 0xa7, 0xe8, 0x64, 0xbe,
  0xeb, 0x1d, 0x75, 0xbe, 0x8a, 0xa2, 0x67, 0xbe, 0x20, 0x51, 0xa6, 0xbd,
  0x5f, 0xfd, 0x1d, 0xbc, 0x33, 0xcd, 0xcd, 0xbc, 0x24, 0x23, 0x6a, 0xbd,
  0xc3, 0x2a, 0x88, 0x3e, 0x6f, 0x83, 0xf4, 0x3c, 0x3b, 0x92, 0x27, 0xbc,
  0x57, 0x71, 0x73, 0x3e, 0x2c, 0x8e, 0x8a, 0xbd, 0xe6, 0xf0, 0xad, 0x3c,
  0xb2, 0x08, 0x69, 0x3d, 0xea, 0x71, 0x56, 0x3e, 0x41, 0xfa, 0x11, 0x3e,
  0x25, 0xdf, 0x27, 0x3e, 0xb0, 0x57, 0x9d, 0x3e, 0x79, 0x5a, 0xc8, 0x3e,
  0xff, 0x69, 0x6f, 0x3e, 0xa4, 0x97, 0x97, 0x3d, 0xcb, 0x46, 0x4e, 0xbd,
  0xd2, 0x87, 0x25, 0xbd, 0x48, 0x8f, 0x09, 0xbd, 0x8e, 0xc9, 0x35, 0xbe,
  0x88, 0xf4, 0x9f, 0x3d, 0x96, 0x80, 0x82, 0xbc, 0xa1, 0xfd, 0x20, 0xbe,
  0x01, 0xaa, 0x08, 0xbb, 0x78, 0x59, 0x69, 0xbd, 0x0b, 0x77, 0xbd, 0xbc,
  0x9a, 0xee, 0xd3, 0xbd, 0xe7, 0x64, 0x3d, 0xbe, 0xa2, 0x64, 0x6a, 0xbd,
  0x49, 0x5e, 0x69, 0xbe, 0x3b, 0xad, 0x95, 0xbe, 0xdc, 0x32, 0x41, 0xbd,
  0x9d, 0xe5, 0x89, 0xbd, 0xd3, 0x40, 0x23, 0xbe, 0xf3, 0xda, 0x94, 0xbe,
  0x0d, 0x58, 0xd0, 0x3e, 0xfc, 0xbb, 0xb7, 0x3d, 0x09, 0x2c, 0xb4, 0xbe,
  0xe4, 0xfb, 0xcb, 0xbe, 0xa1, 0x87, 0x6b, 0xbe, 0x70, 0xff, 0x7e, 0xbc,
  0xee, 0x5b, 0xb5, 0xbd, 0xb9, 0x96, 0x6b, 0xbd, 0x6b, 0x46, 0xd0, 0x3e,
  0xa9, 0x29, 0x8d, 0xbd, 0x12, 0x9d, 0x05, 0x3f, 0x8a, 0xc9, 0x8a, 0xbe,
  0xb1, 0x0d, 0xbe, 0x3e, 0x65, 0x7e, 0xa4, 0xbc, 0x7b, 0x6a, 0xb6, 0x3e,
  0x8f, 0x1f, 0xa3, 0xbe, 0x28, 0x3c, 0x04, 0x3f, 0x08, 0x56, 0x8f, 0x3d,
  0x3c, 0x06, 0x39, 0x3e, 0x7a, 0xce, 0xbe, 0x3c, 0x9d, 0x1e, 0x3e, 0xbd,
  0xde, 0x2e, 0xea, 0xbd, 0x23, 0x70, 0x05, 0xbe, 0x73, 0xbc, 0x25, 0xbf,
  0x92, 0xdf, 0x95, 0xbe, 0x92, 0x73, 0x54, 0xbe, 0x08, 0x21, 0xbe, 0xbe,
  0xe2, 0x9d, 0x6f, 0xbb, 0xb7, 0xf2, 0x84, 0xbd, 0x31, 0xd5, 0x48, 0xbd,
  0x2f, 0xb7, 0xff, 0xbd, 0xbe, 0x97, 0xf8, 0x3d, 0xb4, 0x66, 0x64, 0xbe,
  0x34, 0xde, 0xa5, 0x3d, 0x86, 0xbe, 0x53, 0xbe, 0xba, 0xaa, 0x94, 0xbb,
  0x56, 0x96, 0xcf, 0xbd, 0xb5, 0xe7, 0x57, 0xbd, 0x13, 0xe7, 0x46, 0xbe,
  0x0b, 0x47, 0x27, 0x3c, 0x22, 0x7b, 0x03, 0xbe, 0xaf, 0x67, 0x2b, 0x3e,
  0x4c, 0x13, 0x94, 0xbe, 0xe2, 0xd9, 0xea, 0xbd, 0x40, 0xb6, 0x0b, 0xbd,
  0x5f, 0x27, 0xcb, 0x3b, 0x08, 0x85, 0xe1, 0x3b, 0x47, 0x29, 0xc2, 0x3d,
  0xf6, 0x4a, 0x3a, 0x3f, 0x93, 0xd7, 0xc5, 0x3e, 0x80, 0xce, 0xad, 0x3e,
  0x50, 0x36, 0x89, 0xbb, 0x78, 0x6e, 0xeb, 0xbb, 0xb7, 0xf1, 0x5f, 0xbd,
  0x17, 0x56, 0xb1, 0xbc, 0x5b, 0xf7, 0x13, 0xbe, 0xa8, 0x0b, 0x1a, 0xbe,
  0x58, 0x57, 0x88, 0xbe, 0x76, 0x9c, 0xeb, 0xbd, 0x59, 0x15, 0xf2, 0xbc,
  0x71, 0x24, 0x66, 0x3d, 0x33, 0x88, 0x8a, 0xbc, 0xb6, 0x57, 0x91, 0x3c,
  0xc6, 0x15, 0x4d, 0xbe, 0x4c, 0x44, 0x26, 0xbe, 0xd1, 0xcc, 0xdd, 0xbd,
  0xd7, 0x5c, 0x74, 0xbe, 0xa0, 0x43, 0x34, 0x3d, 0x07, 0xd4, 0x96, 0xbc,
  0xff, 0xc3, 0x06, 0xbd, 0x5a, 0x5c, 0xf1, 0xbc, 0xc2, 0x5b, 0x10, 0xbe,
  0xc8, 0xae, 0x3d, 0xbe, 0x74, 0xe7, 0x41, 0xbe, 0x41, 0xe7, 0xa5, 0xbe,
  0xb5, 0xbd, 0xbf, 0xbc, 0xe2, 0xdd, 0xff, 0xff, 0x10, 0x00, 0x00, 0x00,
  0x0a, 0x00, 0x00, 0x00, 0x1c, 0x00, 0x00, 0x00, 0x38, 0x00, 0x00, 0x00,
  0x04, 0x00, 0x00, 0x00, 0x10, 0x00, 0x00, 0x00, 0x04, 0x00, 0x00, 0x00,
  0x01, 0x00, 0x00, 0x00, 0x08, 0x00, 0x00, 0x00, 0x1a, 0x00, 0x00, 0x00,
  0x73, 0x65, 0x71, 0x75, 0x65, 0x6e, 0x74, 0x69, 0x61, 0x6c, 0x2f, 0x63,
  0x6f, 0x6e, 0x76, 0x32, 0x64, 0x5f, 0x31, 0x2f, 0x43, 0x6f, 0x6e, 0x76,
  0x32, 0x44, 0x00, 0x00, 0x58, 0xdd, 0xff, 0xff, 0x62, 0xde, 0xff, 0xff,
  0x04, 0x00, 0x00, 0x00, 0x80, 0x01, 0x00, 0x00, 0x8b, 0xd3, 0x88, 0xbe,
  0x09, 0xe1, 0xe9, 0xbd, 0x56, 0xa6, 0x8e, 0x3c, 0x13, 0x70, 0x38, 0xbe,
  0x5f, 0x96, 0x9f, 0xbd, 0xab, 0x60, 0xbc, 0x3d, 0xd6, 0x1e, 0x3c, 0xbe,
  0xde, 0x9f, 0xb3, 0xbb, 0xa8, 0x7e, 0x3d, 0xbc, 0x3f, 0x4c, 0x86, 0xbe,
  0xeb, 0x04, 0x29, 0x3d, 0xca, 0x15, 0x30, 0x3d, 0xb8, 0x66, 0x73, 0xbe,
  0xdc, 0x8f, 0x3a, 0x3d, 0xda, 0x0e, 0xac, 0xba, 0x8c, 0xc1, 0x7d, 0xbe,
  0xf5, 0xf2, 0xbf, 0x3c, 0xca, 0x08, 0x6d, 0xbb, 0x53, 0x95, 0x19, 0xbe,
  0xfa, 0x18, 0xe3, 0x3c, 0xd4, 0x0d, 0x84, 0xbd, 0x27, 0x38, 0x0b, 0xbe,
  0x97, 0xdf, 0x74, 0x3d, 0x21, 0x9c, 0xad, 0xbc, 0x99, 0xa9, 0xcd, 0xbb,
  0xab, 0xbc, 0xe0, 0x3d, 0x44, 0x76, 0xfb, 0xbc, 0xda, 0x9a, 0xe3, 0xbd,
  0x58, 0xb4, 0xfd, 0xbe, 0x0e, 0xb1, 0x5a, 0xbc, 0x84, 0x16, 0xf2, 0xbd,
  0x3c, 0x07, 0xdc, 0xbd, 0xf2, 0x17, 0xf1, 0xbd, 0xdd, 0xcf, 0x84, 0xbe,
  0x64, 0xf8, 0x80, 0x3d, 0x9e, 0x03, 0x7d, 0x3d, 0x9b, 0x19, 0x3e, 0x3d,
  0x68, 0x42, 0x16, 0x3e, 0x6b, 0x79, 0x89, 0x3e, 0x2e, 0xff, 0xc6, 0x3d,
  0x40, 0x68, 0x4c, 0x3e, 0x53, 0x19, 0x59, 0x3e, 0xb4, 0x39, 0x0c, 0xbe,
  0x5b, 0xf3, 0x41, 0xbe, 0x94, 0x22, 0xa4, 0xbe, 0x78, 0x7d, 0x99, 0x3d,
  0x34, 0x67, 0x42, 0xbe, 0x6f, 0x4e, 0xc7, 0xbe, 0x8b, 0x02, 0x02, 0xbd,
  0x1e, 0x4d, 0x20, 0x3e, 0xc9, 0x32, 0x7e, 0xbe, 0xf5, 0x7e, 0x7b, 0xbc,
  0x36, 0x59, 0xae, 0xbd, 0x38, 0xe0, 0x0e, 0xbf, 0x85, 0x9e, 0xf1, 0x3c,
  0x02, 0xd1, 0x0d, 0xbe, 0x96, 0x35, 0x13, 0xbd, 0xff, 0xfe, 0xa4, 0x3c,
  0x53, 0xd2, 0x3a, 0x3d, 0x2f, 0x59, 0x22, 0x3f, 0xb9, 0xdb, 0x60, 0x3e,
  0x50, 0x89, 0x85, 0xbd, 0xa2, 0x88, 0x72, 0xbd, 0x11, 0xa5, 0x08, 0x3f,
  0x12, 0xcd, 0x39, 0xbe, 0x67, 0xa0, 0xf0, 0x3d, 0x49, 0xbd, 0x9e, 0xbd,
  0x29, 0xf3, 0x18, 0x3e, 0xad, 0x95, 0x5d, 0xbe, 0x88, 0x61, 0x05, 0xbf,
  0x1e, 0x58, 0x8d, 0xbd, 0x9b, 0x05, 0xbf, 0x3d, 0xd1, 0xf0, 0x8e, 0x3e,
  0x90, 0x13, 0x53, 0x3c, 0x11, 0xcf, 0x8f, 0x3c, 0x70, 0x0c, 0xd7, 0x3e,
  0xf9, 0x77, 0x8d, 0x3e, 0xbb, 0x81, 0x5d, 0xbd, 0x80, 0x24, 0x14, 0xbf,
  0xda, 0xb0, 0xa6, 0xbe, 0x59, 0x7e, 0x25, 0x3c, 0x0a, 0x79, 0xd6, 0xbd,
  0x16, 0x1e, 0x2a, 0xbe, 0x15, 0x16, 0x0c, 0x3c, 0xc5, 0x99, 0xce, 0xbd,
  0xe3, 0xa4, 0xd6, 0x3d, 0x76, 0xf5, 0x0d, 0xbe, 0x87, 0xfd, 0x7d, 0xbd,
  0xb5, 0x96, 0x7e, 0xbe, 0xad, 0xbf, 0xc3, 0x3d, 0x10, 0x53, 0xf7, 0x3c,
  0x61, 0x7f, 0x3d, 0xbe, 0x4f, 0x93, 0x18, 0x3e, 0xf2, 0x85, 0x1d, 0xbe,
  0xa3, 0xd0, 0x05, 0xbd, 0x65, 0x3c, 0x60, 0x3d, 0xba, 0xdf, 0xff, 0xff,
  0x10, 0x00, 0x00, 0x00, 0x09, 0x00, 0x00, 0x00, 0x1c, 0x00, 0x00, 0x00,
  0x38, 0x00, 0x00, 0x00, 0x04, 0x00, 0x00, 0x00, 0x08, 0x00, 0x00, 0x00,
  0x04, 0x00, 0x00, 0x00, 0x03, 0x00, 0x00, 0x00, 0x01, 0x00, 0x00, 0x00,
  0x18, 0x00, 0x00, 0x00, 0x73, 0x65, 0x71, 0x75, 0x65, 0x6e, 0x74, 0x69,
  0x61, 0x6c, 0x2f, 0x63, 0x6f, 0x6e, 0x76, 0x32, 0x64, 0x2f, 0x43, 0x6f,
  0x6e, 0x76, 0x32, 0x44, 0x00, 0x00, 0x00, 0x00, 0x30, 0xdf, 0xff, 0xff,
  0x3a, 0xe0, 0xff, 0xff, 0x04, 0x00, 0x00, 0x00, 0x00, 0x01, 0x00, 0x00,
  0xd8, 0xc0, 0xb8, 0xbe, 0x3f, 0x32, 0x50, 0x3e, 0x4e, 0xc9, 0xa6, 0x3e,
  0xff, 0xfe, 0x2b, 0xbe, 0x92, 0xfb, 0x13, 0xbe, 0xd9, 0x25, 0xc3, 0x3e,
  0xd0, 0x0f, 0xd7, 0x3e, 0x90, 0xc3, 0x86, 0xbe, 0xc8, 0x20, 0x23, 0x3f,
  0xa3, 0x8d, 0x21, 0xbd, 0x6b, 0xe4, 0xb0, 0x3e, 0xb0, 0xcf, 0xef, 0xbe,
  0xd1, 0x2a, 0xda, 0xba, 0xed, 0xb9, 0x2b, 0x3f, 0x94, 0xa1, 0x88, 0xbe,
  0x40, 0x82, 0x98, 0x3e, 0x93, 0x65, 0x6b, 0xbf, 0xe5, 0x8e, 0x72, 0x3e,
  0x59, 0xc8, 0xae, 0x3e, 0x35, 0xca, 0x17, 0xbe, 0x13, 0x01, 0xeb, 0xbd,
  0xbc, 0xa7, 0xb3, 0x3e, 0xb6, 0x07, 0xf2, 0x3e, 0xd2, 0x7f, 0xe2, 0x3a,
  0x50, 0x32, 0x28, 0xbf, 0x2d, 0xb1, 0x49, 0xbd, 0x8c, 0xf8, 0x95, 0x3e,
  0x84, 0x5a, 0x80, 0xbe, 0x69, 0xed, 0x94, 0xbc, 0xcc, 0xf5, 0x1a, 0xbf,
  0x7c, 0x1e, 0x24, 0xbe, 0xdb, 0xf4, 0x57, 0x3e, 0x42, 0x08, 0xa1, 0x3e,
  0x2a, 0xa2, 0x35, 0x3d, 0xa9, 0x60, 0x9b, 0x3e, 0xd7, 0x3d, 0xa0, 0xbe,
  0x39, 0x3f, 0x6f, 0xbe, 0x10, 0xda, 0x8f, 0x3e, 0x39, 0x4e, 0xb6, 0x3e,
  0x6c, 0x70, 0x8b, 0x3e, 0xd5, 0xb5, 0x73, 0xbe, 0xe7, 0xd3, 0x73, 0xbd,
  0xb5, 0x92, 0x83, 0x3e, 0x2a, 0xaf, 0x75, 0x3e, 0x2f, 0x4c, 0x13, 0xbe,
  0x03, 0x81, 0x39, 0xbe, 0x6f, 0xa2, 0xd2, 0x3e, 0xe0, 0x58, 0xb5, 0x3e,
  0x4c, 0xaf, 0xca, 0x3e, 0x9f, 0x4e, 0x4e, 0x3e, 0xbf, 0x48, 0xc7, 0x3e,
  0x0a, 0xd8, 0x4b, 0xbe, 0xa9, 0xab, 0x1d, 0xbe, 0xff, 0xe9, 0x9e, 0x3e,
  0x19, 0xbb, 0xc5, 0x3e, 0xb1, 0xf6, 0x8a, 0x3e, 0x60, 0x95, 0x01, 0xbf,
  0x9f, 0xe9, 0x75, 0xbe, 0x1a, 0x5d, 0x86, 0x3e, 0xdb, 0xe3, 0x41, 0x3e,
  0xb5, 0xc8, 0x5a, 0x3c, 0x02, 0xf3, 0xb1, 0xbe, 0xb9, 0xd7, 0x4d, 0x3e,
  0x15, 0x9b, 0x81, 0x3e, 0x12, 0xe1, 0xff, 0xff, 0x10, 0x00, 0x00, 0x00,
  0x08, 0x00, 0x00, 0x00, 0x14, 0x00, 0x00, 0x00, 0x30, 0x00, 0x00, 0x00,
  0x02, 0x00, 0x00, 0x00, 0x04, 0x00, 0x00, 0x00, 0x10, 0x00, 0x00, 0x00,
  0x19, 0x00, 0x00, 0x00, 0x73, 0x65, 0x71, 0x75, 0x65, 0x6e, 0x74, 0x69,
  0x61, 0x6c, 0x2f, 0x64, 0x65, 0x6e, 0x73, 0x65, 0x5f, 0x31, 0x2f, 0x4d,
  0x61, 0x74, 0x4d, 0x75, 0x6c, 0x00, 0x00, 0x00, 0x80, 0xe0, 0xff, 0xff,
  0x8a, 0xe1, 0xff, 0xff, 0x04, 0x00, 0x00, 0x00, 0x00, 0x1c, 0x00, 0x00,
  0x3a, 0x6f, 0x25, 0xbe, 0xed, 0x43, 0xc4, 0xbc, 0x05, 0x2a, 0xe4, 0xbd,
  0x99, 0x5a, 0x10, 0xbe, 0x39, 0x18, 0x9e, 0xbe, 0xac, 0x42, 0x66, 0xb8,
  0x55, 0x70, 0xcf, 0x3d, 0x91, 0x08, 0x8b, 0xbe, 0x90, 0x16, 0xab, 0xbd,
  0x99, 0x46, 0xd3, 0xbd, 0x8f, 0x35, 0xf3, 0x3d, 0x0d, 0x0f, 0x66, 0xbe,
  0x65, 0xf7, 0xa3, 0xbe, 0xa5, 0x25, 0x30, 0x3e, 0x1b, 0xe8, 0x6e, 0xbe,
  0xcd, 0x45, 0x30, 0x3d, 0xe6, 0x99, 0xd3, 0x3d, 0x2d, 0xe6, 0xc2, 0x3c,
  0xfc, 0xf2, 0xb0, 0x3d, 0x99, 0x18, 0xf9, 0x3d, 0xd1, 0x9c, 0x90, 0xbe,
  0x7d, 0xce, 0xbd, 0xbd, 0x4d, 0x58, 0x8c, 0x3e, 0x36, 0x43, 0xb4, 0x3d,
  0xfe, 0x2a, 0x49, 0x3e, 0xcd, 0xbb, 0x82, 0x3e, 0xa3, 0x66, 0xa7, 0xbe,
  0x02, 0x8b, 0x39, 0x3e, 0xe3, 0x7d, 0xe2, 0x3c, 0xbb, 0x63, 0xe9, 0x3d,
  0x2e, 0x43, 0xce, 0x3b, 0x13, 0xb3, 0x7e, 0xbe, 0xe4, 0x56, 0xac, 0xbd,
  0xe3, 0x7d, 0xf9, 0x3c, 0x4c, 0x92, 0xcb, 0x3d, 0x2e, 0x2c, 0x7b, 0x3e,
  0x79, 0x6b, 0x80, 0xbe, 0x02, 0x7c, 0x40, 0xbe, 0xdf, 0x53, 0x52, 0x3e,
  0x14, 0x75, 0x21, 0x39, 0xe4, 0x8f, 0x10, 0x3d, 0x4a, 0xf6, 0x95, 0x3e,
  0x49, 0x95, 0x5d, 0xbe, 0x02, 0x3c, 0x57, 0xbd, 0x7b, 0xaf, 0x7d, 0x3d,
  0xa3, 0xe2, 0x62, 0x3e, 0x44, 0x72, 0x6a, 0x3d, 0xe5, 0xdd, 0x90, 0xbe,
  0x3e, 0xc1, 0x59, 0x3d, 0x1a, 0xe0, 0x31, 0xbd, 0x8c, 0xbd, 0xd5, 0x3d,
  0x18, 0x62, 0x7b, 0xbd, 0x93, 0x6b, 0x4a, 0xbe, 0x66, 0xec, 0x69, 0xbd,
  0xa3, 0x83, 0x08, 0x3e, 0x63, 0xd4, 0xe9, 0xbd, 0x84, 0xbb, 0xc2, 0x3d,
  0xe8, 0x67, 0x39, 0x3e, 0x31, 0x57, 0x42, 0xbe, 0x62, 0x69, 0x2f, 0x3e,
  0x47, 0x3e, 0x48, 0xbd, 0x36, 0xec, 0xec, 0x3d, 0xcf, 0x46, 0xf0, 0x3d,
  0x07, 0x8b, 0x77, 0x3c, 0x5a, 0x84, 0x20, 0xbd, 0x40, 0x54, 0x8a, 0xbd,
  0x3d, 0xcd, 0x68, 0xbd, 0x03, 0xd2, 0xe2, 0xbb, 0xd1, 0x8f, 0x09, 0xbf,
  0x58, 0x71, 0x5e, 0xbe, 0x0c, 0x86, 0x0b, 0x3e, 0xeb, 0x57, 0x32, 0xbe,
  0x56, 0x49, 0xdb, 0x3d, 0xa8, 0x26, 0x2a, 0xbe, 0x9c, 0x70, 0x2d, 0xbd,
  0xdc, 0xf7, 0x68, 0x3d, 0x29, 0x2b, 0x8a, 0xbc, 0x92, 0x2d, 0x97, 0x3c,
  0xc3, 0x9a, 0xbb, 0xbc, 0x00, 0xd3, 0x97, 0x3c, 0x44, 0x25, 0x08, 0x3d,
  0x0d, 0x6e, 0x91, 0x3d, 0x95, 0xcb, 0x00, 0xbd, 0x70, 0x33, 0x11, 0x3e,
  0xd2, 0xf0, 0xfc, 0xbe, 0x0f, 0x2c, 0xd2, 0xbd, 0x3a, 0xce, 0x9a, 0x3d,
  0xe1, 0xe2, 0x35, 0x3d, 0xcc, 0x9c, 0xb2, 0xbe, 0x08, 0x95, 0x14, 0x3e,
  0x0d, 0xfb, 0x41, 0xbe, 0xe7, 0xb1, 0x8b, 0xbc, 0x85, 0x7f, 0xaf, 0xbe,
  0xc8, 0x7d, 0x92, 0x3b, 0xf2, 0x8c, 0x8e, 0x3d, 0x9a, 0x14, 0x00, 0xbd,
  0xb8, 0x7b, 0x01, 0x3e, 0x9e, 0xf8, 0x6c, 0xbc, 0x46, 0x45, 0x2b, 0x3e,
  0x3c, 0x4b, 0x2e, 0x3d, 0x47, 0xb5, 0x28, 0xbe, 0x8d, 0xbb, 0x1a, 0x3b,
  0x69, 0x70, 0x2e, 0xbe, 0xef, 0x8b, 0x02, 0xbe, 0xe1, 0xe3, 0xbf, 0xbd,
  0x7d, 0xfc, 0x6b, 0x3c, 0xfb, 0xaa, 0xd9, 0xbd, 0x83, 0x62, 0x30, 0xbd,
  0xeb, 0x78, 0x68, 0xbd, 0x65, 0xcd, 0x10, 0x3d, 0x34, 0x49, 0xe6, 0x3d,
  0x3c, 0x5d, 0xd6, 0xbb, 0xe8, 0x6c, 0xaf, 0xbd, 0x4b, 0x23, 0x76, 0x3e,
  0x9f, 0x40, 0x47, 0x3e, 0xa0, 0x88, 0xa4, 0xbd, 0x8b, 0xf3, 0xb0, 0x3d,
  0x56, 0x53, 0xe2, 0x3d, 0x12, 0xb8, 0x85, 0x3e, 0xdf, 0x7e, 0x9d, 0x3e,
  0x9e, 0x27, 0x9c, 0x3e, 0x28, 0x4e, 0x8b, 0x3d, 0x0a, 0x75, 0xfa, 0x3d,
  0x12, 0xf4, 0x88, 0x3e, 0x3a, 0xa6, 0x86, 0xbb, 0xff, 0x4d, 0x4b, 0xbd,
  0x59, 0x13, 0xa3, 0xbd, 0xb0, 0x94, 0x50, 0x3d, 0x6f, 0x57, 0x39, 0xbd,
  0x1a, 0x3c, 0x39, 0x3b, 0xf3, 0xa1, 0xa4, 0xbe, 0x0d, 0xa1, 0xd0, 0x3e,
  0x5a, 0x5e, 0xe7, 0x3c, 0x9a, 0x82, 0xfd, 0x3c, 0x13, 0x9f, 0x16, 0x3d,
  0x3e, 0xb5, 0xdc, 0xbd, 0xa5, 0xea, 0x17, 0xbe, 0x7e, 0xdc, 0xb9, 0xbd,
  0x72, 0x8e, 0x98, 0xbc, 0x72, 0x91, 0x43, 0x3e, 0xff, 0xbe, 0xe4, 0xbe,
  0xfa, 0x9f, 0x29, 0xbe, 0x33, 0xa6, 0x49, 0x3d, 0xdd, 0x99, 0x3e, 0xbd,
  0x95, 0xf4, 0x85, 0xbc, 0x58, 0x47, 0xee, 0x3d, 0xf7, 0x38, 0x9f, 0xbd,
  0xcf, 0xbe, 0x58, 0x3e, 0xfb, 0x7f, 0x6f, 0x3c, 0x40, 0x17, 0x65, 0x3d,
  0x1e, 0xb4, 0xc3, 0xbc, 0x97, 0xad, 0xdf, 0xbc, 0x50, 0x6a, 0x13, 0xbd,
  0xfe, 0x0e, 0xf3, 0xbc, 0x04, 0x80, 0xb5, 0xbc, 0x9e, 0x6e, 0x39, 0x3e,
  0x88, 0xc2, 0x08, 0xbf, 0xe5, 0x0d, 0xdd, 0xbc, 0x37, 0x3f, 0x81, 0xbe,
  0x14, 0x85, 0x12, 0xbf, 0xa0, 0x0a, 0x80, 0x3c, 0x0f, 0x45, 0x1b, 0x3e,
  0x1e, 0x16, 0x85, 0xbe, 0x7d, 0x82, 0x3b, 0x3e, 0x25, 0x82, 0xbd, 0x3b,
  0x69, 0x4b, 0x22, 0xbd, 0xe4, 0xfc, 0x85, 0xbc, 0x9c, 0xca, 0xce, 0x3c,
  0x31, 0x06, 0xa4, 0xbc, 0xaa, 0x54, 0xdc, 0xbd, 0x48, 0x26, 0xdb, 0xbb,
  0xdb, 0x27, 0xf1, 0x3e, 0xd7, 0x0e, 0x9c, 0xbe, 0x56, 0x04, 0x8c, 0xbe,
  0x3b, 0xc9, 0x28, 0xbe, 0x56, 0x36, 0x3b, 0xbf, 0xa7, 0xa8, 0x0a, 0x3d,
  0x2f, 0xd6, 0xdd, 0x3c, 0x57, 0xad, 0x1c, 0xbc, 0x5b, 0x57, 0xf4, 0xbc,
  0x16, 0x43, 0xb7, 0x3b, 0x66, 0x76, 0x80, 0x3e, 0x10, 0x77, 0xc4, 0xbb,
  0xb3, 0x9c, 0x6a, 0x3b, 0x76, 0x73, 0xdb, 0x3e, 0xbf, 0xc7, 0x00, 0xbe,
  0xc3, 0x0a, 0x04, 0xbc, 0x83, 0xbd, 0x8c, 0xbd, 0x23, 0x06, 0xa9, 0xbd,
  0xf1, 0xb3, 0xe0, 0x3e, 0xfd, 0xbc, 0x3b, 0xbe, 0xbf, 0x86, 0x28, 0xbf,
  0x67, 0xf6, 0x23, 0x3c, 0x9a, 0x78, 0x79, 0x3c, 0x6a, 0xeb, 0x37, 0x3e,
  0x73, 0xfc, 0x2c, 0xbd, 0xbd, 0x62, 0x6d, 0x3c, 0xda, 0x39, 0xa1, 0x3e,
  0xf6, 0x28, 0x08, 0xbc, 0x9b, 0x7d, 0xaa, 0xbd, 0xb8, 0x23, 0xdc, 0x3e,
  0xd8, 0x5d, 0xc7, 0xbd, 0xd5, 0xff, 0x3e, 0xbd, 0xbc, 0x4d, 0x6d, 0x3d,
  0xfd, 0x61, 0xb2, 0xbd, 0xb4, 0x00, 0x2a, 0x3e, 0x5d, 0x66, 0x92, 0xbe,
  0xa0, 0x11, 0xd8, 0xbd, 0x0c, 0x8d, 0x25, 0x3e, 0x05, 0x63, 0x20, 0xbc,
  0xe1, 0x5e, 0x90, 0x3e, 0xbb, 0x53, 0x16, 0xbd, 0xf8, 0xe3, 0xbb, 0xb9,
  0x35, 0xb9, 0x42, 0xbc, 0x4b, 0x2a, 0xdd, 0xbd, 0xa8, 0x3e, 0xc3, 0xbd,
  0x0b, 0xcc, 0x3a, 0x3e, 0xed, 0x2f, 0x7e, 0x3d, 0x0b, 0x31, 0x2b, 0x3c,
  0xac, 0x35, 0xfa, 0x3d, 0x41, 0x81, 0x10, 0x3d, 0xc2, 0xda, 0xa4, 0x3e,
  0xf3, 0xd5, 0xc3, 0xbc, 0x50, 0x44, 0xf6, 0x3c, 0xfb, 0x4f, 0x9d, 0x3d,
  0x8d, 0x1a, 0x8d, 0xbd, 0x2c, 0xb9, 0x0d, 0x3a, 0xa8, 0x6c, 0x33, 0xbe,
  0x36, 0x0f, 0x47, 0xbe, 0xc3, 0x76, 0x58, 0x3c, 0x7c, 0x55, 0x4c, 0xbe,
  0xe9, 0xee, 0xca, 0xbc, 0x09, 0x39, 0xb1, 0x3d, 0xec, 0xaf, 0x9d, 0x3e,
  0xc3, 0x17, 0xf0, 0xbd, 0xb4, 0xa2, 0x51, 0x3e, 0x8b, 0x47, 0x6b, 0xbc,
  0xa4, 0x00, 0xca, 0x3d, 0xcf, 0xca, 0x18, 0xbe, 0xdb, 0xc3, 0x93, 0xbe,
  0xad, 0x45, 0xd7, 0x3d, 0x7a, 0x91, 0x9b, 0xbd, 0x08, 0x0b, 0x4a, 0x3e,
  0xe0, 0x98, 0xb2, 0xbd, 0x8a, 0xb1, 0x4a, 0x3d, 0xef, 0x65, 0x0f, 0xbe,
  0xe7, 0x9e, 0x60, 0x3e, 0x08, 0xe5, 0x98, 0x3e, 0xb4, 0xf5, 0x82, 0xbe,
  0x18, 0x52, 0xa9, 0x3b, 0xeb, 0x29, 0xcf, 0xbd, 0x9a, 0x3d, 0xde, 0x3d,
  0x0a, 0xe3, 0x8d, 0xbd, 0x86, 0x2c, 0xa0, 0x3e, 0x5d, 0xd0, 0x02, 0xbe,
  0x09, 0x56, 0xd0, 0xbd, 0x75, 0xdb, 0x0f, 0xbd, 0x25, 0x46, 0x04, 0x3e,
  0xe5, 0x65, 0xaa, 0xbc, 0x7a, 0x43, 0x7d, 0xbd, 0xb7, 0x1f, 0x9a, 0xbd,
  0x2e, 0xae, 0xef, 0xbd, 0x93, 0x14, 0x0e, 0xbe, 0x0a, 0x83, 0xa2, 0x3d,
  0x04, 0xc2, 0xb2, 0x3d, 0xe6, 0xb7, 0x2a, 0x3e, 0x65, 0x14, 0x8a, 0xbc,
  0x33, 0x89, 0xad, 0x3d, 0x1c, 0xda, 0xa6, 0x3d, 0x56, 0x74, 0xcf, 0x3e,
  0x86, 0x5b, 0xc3, 0x3c, 0xa5, 0x38, 0x1c, 0x3e, 0x62, 0x8f, 0x15, 0x3d,
  0x99, 0xe7, 0xd1, 0xbd, 0xfa, 0x02, 0x58, 0x3e, 0x0c, 0x98, 0x46, 0xbe,
  0x2f, 0x9a, 0x33, 0xbd, 0x31, 0xba, 0x39, 0xbe, 0x59, 0x8e, 0x8d, 0xbe,
  0x47, 0x2b, 0x02, 0x3e, 0xf7, 0xb4, 0x9c, 0x3e, 0x8b, 0x6a, 0x65, 0x3d,
  0x92, 0x82, 0x8b, 0xbe, 0x0b, 0xb5, 0x00, 0xbe, 0x37, 0xc1, 0xae, 0xbc,
  0x08, 0xa2, 0xe5, 0x3b, 0x50, 0xa0, 0x98, 0x3d, 0x57, 0x59, 0x05, 0x3e,
  0xa6, 0xb2, 0x2c, 0xbe, 0x95, 0xff, 0xc2, 0xbd, 0x0f, 0x5c, 0x98, 0x3d,
  0xee, 0x9f, 0x96, 0xbe, 0x4e, 0x64, 0x86, 0xbc, 0x37, 0xb8, 0x0b, 0xbd,
  0x92, 0xba, 0x02, 0xbe, 0xbc, 0xf1, 0xc6, 0x3e, 0x11, 0xc9, 0x28, 0xbe,
  0x8b, 0x4e, 0xb1, 0x3e, 0x06, 0xa3, 0x3a, 0xbe, 0x5e, 0x4e, 0x94, 0x3d,
  0xcb, 0x13, 0xe2, 0xbc, 0x98, 0x5c, 0x84, 0x3d, 0x27, 0xa0, 0x94, 0xbd,
  0x60, 0x7a, 0xbe, 0x3d, 0x60, 0xb9, 0x9b, 0xbc, 0x5f, 0x4c, 0xaa, 0x3d,
  0x70, 0x76, 0xb8, 0x3d, 0x5e, 0x11, 0xab, 0xbe, 0xde, 0x18, 0x6e, 0xbb,
  0x29, 0xf6, 0x72, 0xbd, 0x17, 0xd5, 0x81, 0xbe, 0xf1, 0x48, 0xc2, 0x3e,
  0x1a, 0x6b, 0x43, 0xbe, 0x78, 0xdc, 0x69, 0x3e, 0xfc, 0x60, 0xd3, 0xbe,
  0xba, 0x45, 0xc5, 0xbd, 0xe0, 0x87, 0xdb, 0xbd, 0x5b, 0x56, 0x1b, 0x3e,
  0xba, 0xf1, 0x3a, 0xbe, 0x9d, 0xd2, 0xd8, 0xbd, 0xfb, 0x74, 0x6e, 0x3e,
  0xd7, 0xdf, 0xef, 0x3d, 0xc5, 0x89, 0x41, 0x3d, 0x7d, 0x39, 0x58, 0x3e,
  0x55, 0x83, 0x6e, 0xbc, 0x9b, 0x46, 0xb8, 0xbe, 0xf5, 0x0a, 0x83, 0xbe,
  0x23, 0xd2, 0xd7, 0xbd, 0x53, 0x38, 0xb3, 0xbe, 0x36, 0x12, 0x10, 0x3e,
  0x6e, 0x17, 0xe4, 0xbe, 0xa0, 0x33, 0x0c, 0x3e, 0x32, 0xd0, 0x05, 0xbe,
  0xb2, 0x47, 0x0b, 0xbe, 0xc8, 0x72, 0xd0, 0xbd, 0x35, 0x10, 0x9d, 0xbc,
  0x56, 0x93, 0xaa, 0x3d, 0x84, 0x0c, 0x81, 0x3e, 0xb7, 0x79, 0x10, 0x3e,
  0x6b, 0x21, 0x71, 0x3b, 0x2c, 0x5b, 0x75, 0x3d, 0x4b, 0x2c, 0x8c, 0x3e,
  0x38, 0x06, 0x21, 0x3d, 0x47, 0x6b, 0x53, 0x3e, 0x2f, 0xec, 0xa0, 0x3e,
  0x38, 0x2c, 0x73, 0xbc, 0x2a, 0xe2, 0x07, 0x3e, 0x64, 0x20, 0x8c, 0x3e,
  0xbd, 0xa1, 0x51, 0xbc, 0x75, 0x58, 0x95, 0x3d, 0x66, 0x57, 0xdd, 0x3d,
  0x82, 0x37, 0xe6, 0xbb, 0x36, 0x73, 0x87, 0xbd, 0x49, 0x65, 0xdd, 0xbd,
  0xf6, 0xb6, 0x03, 0xbe, 0x32, 0x29, 0x4d, 0x3e, 0x22, 0x0e, 0x9b, 0x3d,
  0xea, 0x4b, 0xe3, 0xbc, 0x6b, 0xc4, 0xc2, 0xbd, 0xe0, 0x83, 0x98, 0xbe,
  0x98, 0xd8, 0xbb, 0xbd, 0x43, 0x7d, 0xa4, 0xbd, 0x7e, 0xcc, 0x99, 0xbd,
  0x9a, 0x4d, 0x06, 0x3c, 0x40, 0xa9, 0x8b, 0xbd, 0x72, 0xa6, 0xd8, 0x3c,
  0x0b, 0x1b, 0x6b, 0xbb, 0x51, 0x37, 0xde, 0x3d, 0xff, 0x96, 0x2a, 0xbd,
  0x51, 0x02, 0x12, 0xbe, 0x9c, 0x54, 0x4c, 0x3d, 0x2c, 0x4d, 0x27, 0xbd,
  0xc8, 0x0f, 0x12, 0xbd, 0x5f, 0xe6, 0x1a, 0x3d, 0xbc, 0xed, 0x0d, 0xbc,
  0x90, 0xb9, 0x91, 0x3d, 0x1f, 0x78, 0x67, 0x3e, 0xd9, 0xb8, 0xbd, 0xbb,
  0x65, 0x28, 0x9d, 0xbe, 0xe0, 0xba, 0x32, 0xbc, 0xbc, 0x6b, 0x80, 0xbe,
  0xab, 0x64, 0x76, 0xbc, 0xa2, 0x59, 0x0e, 0xbe, 0x75, 0xf7, 0x92, 0xbd,
  0x77, 0xb5, 0x71, 0xbc, 0x5b, 0x62, 0x28, 0xbc, 0x3c, 0x39, 0x75, 0xbd,
  0xb8, 0xb1, 0xcc, 0x3a, 0x14, 0x6d, 0xd5, 0xbd, 0x36, 0x1a, 0x0a, 0xbc,
  0xb1, 0x49, 0x03, 0xbd, 0x0c, 0x59, 0x26, 0xbd, 0x8d, 0xea, 0x10, 0x3d,
  0x98, 0x3a, 0xe4, 0xbd, 0xd6, 0x3b, 0x33, 0xbd, 0xcd, 0x05, 0x04, 0x3e,
  0x78, 0x43, 0xfc, 0xbc, 0x2f, 0x16, 0x31, 0x3e, 0xd8, 0xbb, 0x62, 0x3e,
  0x21, 0xd4, 0x90, 0xbe, 0x1d, 0xd2, 0xd5, 0x3c, 0x3e, 0xe8, 0xea, 0xbc,
  0x77, 0xab, 0xf6, 0x3d, 0xcc, 0xc9, 0xf9, 0xbc, 0x25, 0xe3, 0x5e, 0xbd,
  0xd1, 0x6b, 0xb5, 0xbc, 0x02, 0x1e, 0x96, 0xbd, 0xe6, 0xce, 0x00, 0xbe,
  0x82, 0x06, 0x9b, 0xbe, 0xfb, 0xec, 0x24, 0xbd, 0xf8, 0x94, 0x32, 0x3d,
  0x3a, 0x9c, 0xb6, 0xbd, 0xda, 0x45, 0x0f, 0xbd, 0xde, 0x12, 0x51, 0x3e,
  0x0f, 0x1d, 0x34, 0x3d, 0x19, 0xff, 0x7a, 0xbe, 0x7d, 0xaa, 0x1b, 0xbc,
  0x69, 0x4c, 0xe7, 0xbd, 0x01, 0x37, 0x52, 0xbe, 0x54, 0x37, 0x85, 0xbd,
  0xcc, 0x01, 0x17, 0xbe, 0xf7, 0x25, 0xdf, 0x3d, 0xb4, 0xfd, 0xe6, 0xbd,
  0xa7, 0x49, 0xbf, 0xbd, 0xcf, 0x12, 0x9b, 0xbd, 0xc7, 0x44, 0x88, 0xbd,
  0x4e, 0x0a, 0xf2, 0xbd, 0x13, 0x20, 0xde, 0xbd, 0xd6, 0x7d, 0x71, 0xbe,
  0xa9, 0x27, 0x36, 0x3e, 0xd8, 0x66, 0x36, 0xbc, 0x3d, 0x06, 0xde, 0xbd,
  0xa8, 0x72, 0x91, 0xbe, 0x3f, 0xdb, 0x49, 0xbc, 0xdb, 0xa4, 0xc7, 0x3d,
  0x8e, 0x1d, 0xb9, 0x3e, 0x39, 0x58, 0x0d, 0xbd, 0x7f, 0xf6, 0xee, 0xbd,
  0xea, 0x36, 0x1e, 0xbe, 0xab, 0xc5, 0xc6, 0xbd, 0x14, 0x8e, 0xee, 0x3a,
  0xdc, 0x6b, 0x26, 0xbc, 0xd4, 0x47, 0x1b, 0xbe, 0xc9, 0x23, 0x1b, 0x3c,
  0x33, 0x81, 0xb7, 0x3d, 0x21, 0x2a, 0xb7, 0x3e, 0xab, 0x97, 0x7a, 0x3d,
  0x62, 0xdb, 0x5b, 0xbe, 0xa9, 0x3f, 0xba, 0xbe, 0x09, 0x69, 0x90, 0xbe,
  0xf5, 0x85, 0x53, 0xbe, 0xa6, 0xac, 0xd5, 0xbe, 0xa3, 0xcf, 0x05, 0xbe,
  0x9f, 0x03, 0xa7, 0x3a, 0x9d, 0x61, 0x56, 0xbd, 0x4d, 0x91, 0x6d, 0x3d,
  0x58, 0xdf, 0xc2, 0xbc, 0xb5, 0x0c, 0x8b, 0xbd, 0x86, 0x2e, 0x09, 0xbf,
  0x20, 0xea, 0xec, 0xbd, 0xbb, 0x10, 0x9a, 0xbd, 0x2c, 0x14, 0x8a, 0xbe,
  0xae, 0x3c, 0x29, 0xbf, 0xa2, 0x7f, 0x8d, 0xbe, 0xfb, 0x81, 0xfc, 0xbe,
  0x0c, 0x73, 0x93, 0xbd, 0x4d, 0x41, 0x59, 0xbe, 0xd2, 0x68, 0xe2, 0xbe,
  0xeb, 0xd5, 0x70, 0xbd, 0x4b, 0x56, 0xe1, 0x3d, 0xbc, 0x08, 0xbc, 0xbe,
  0xc6, 0xc3, 0xd8, 0xbc, 0xcd, 0xcb, 0x7c, 0xbd, 0xa9, 0x81, 0xc0, 0xbc,
  0xbb, 0x67, 0x08, 0xbf, 0x4f, 0x6c, 0x16, 0xbb, 0xb7, 0x31, 0x4f, 0x3c,
  0xd8, 0xfe, 0xbd, 0xbe, 0x6c, 0x15, 0xb5, 0xbe, 0xad, 0x85, 0x3b, 0xbe,
  0x5f, 0xff, 0x22, 0xbf, 0x86, 0xdb, 0x31, 0xbe, 0x7b, 0xdb, 0xe8, 0xbd,
  0x63, 0x25, 0xac, 0xbe, 0x40, 0x4b, 0x02, 0xbd, 0x18, 0x60, 0x69, 0xbe,
  0x6a, 0xbc, 0x3a, 0xbe, 0x8d, 0x6b, 0xa3, 0x3c, 0x3c, 0x0b, 0x97, 0xbd,
  0x2b, 0x43, 0x65, 0xbd, 0x83, 0xe4, 0x67, 0xbe, 0xcc, 0xba, 0xb6, 0x3d,
  0x17, 0xc5, 0xb6, 0xbd, 0x3a, 0x38, 0x76, 0xbe, 0x8c, 0x5e, 0x37, 0xbe,
  0x9d, 0x5c, 0xa2, 0xbe, 0xd5, 0x1a, 0x0f, 0xbf, 0x00, 0x21, 0x93, 0xbe,
  0x70, 0xb4, 0xa1, 0xbe, 0xe5, 0x8e, 0x09, 0xbf, 0x06, 0x16, 0xb3, 0xbc,
  0xe2, 0x95, 0x0e, 0xbe, 0x97, 0x0c, 0x41, 0xbe, 0xa4, 0x1c, 0x96, 0xbd,
  0x1a, 0x77, 0x91, 0xbe, 0xf4, 0x8e, 0xc4, 0xbd, 0xe9, 0x42, 0x1a, 0xbf,
  0x48, 0xaa, 0xa4, 0x3d, 0x80, 0xca, 0xc6, 0xbe, 0x40, 0xa0, 0x05, 0x3d,
  0x4a, 0xc2, 0xfa, 0xbe, 0x0e, 0xee, 0x89, 0xbe, 0x17, 0xad, 0xd2, 0xbe,
  0x6c, 0xcc, 0xa6, 0xbe, 0x38, 0x33, 0xf3, 0xbb, 0x44, 0xbf, 0x84, 0xbe,
  0x7a, 0xb8, 0x4b, 0xbd, 0xfd, 0x5d, 0x82, 0x3e, 0x27, 0x4c, 0xb8, 0xbe,
  0x88, 0x50, 0x25, 0x3e, 0xa7, 0x0f, 0x86, 0x3e, 0x38, 0xa5, 0x24, 0xbe,
  0xda, 0x81, 0x03, 0xbe, 0xc0, 0x9c, 0xa6, 0x3d, 0x10, 0x92, 0x93, 0x3d,
  0x37, 0x3c, 0xe4, 0x3e, 0xa1, 0x15, 0x01, 0xbf, 0x52, 0x97, 0xd0, 0xbe,
  0x3c, 0x4c, 0x4b, 0xbe, 0x74, 0xa4, 0x15, 0x3e, 0x10, 0x99, 0x16, 0x3e,
  0x22, 0x86, 0xde, 0xbe, 0x89, 0xe8, 0xf5, 0xbc, 0x78, 0x62, 0x2e, 0x3e,
  0x73, 0xe8, 0xc5, 0xbe, 0x08, 0xed, 0x8c, 0xbd, 0xd3, 0xd3, 0x3f, 0x3e,
  0x9d, 0x6d, 0xd2, 0xbd, 0x91, 0x83, 0x66, 0x3d, 0xb7, 0x29, 0x39, 0xbe,
  0x57, 0xe4, 0xb6, 0xbb, 0x98, 0xcb, 0x6e, 0x3e, 0x94, 0xbe, 0xa7, 0xbd,
  0x3f, 0x0b, 0xef, 0x3b, 0xef, 0x90, 0x17, 0xbf, 0xf2, 0x5e, 0x08, 0x3d,
  0x61, 0xae, 0x58, 0x3e, 0xbe, 0x88, 0xae, 0xbe, 0xa4, 0xc9, 0x3f, 0x3e,
  0x5c, 0x6f, 0xac, 0xbd, 0x99, 0x88, 0x9e, 0xbe, 0xcc, 0xf5, 0xca, 0x3d,
  0x2c, 0x16, 0x9e, 0x3e, 0x59, 0x88, 0xa6, 0xbd, 0xa1, 0x47, 0xb8, 0xbc,
  0x1e, 0x81, 0x69, 0x3e, 0x55, 0x4f, 0x9d, 0x3d, 0x09, 0xc4, 0xdb, 0x3e,
  0xb0, 0xed, 0xb4, 0x3c, 0xf5, 0xd4, 0xcc, 0x3b, 0x4d, 0x7e, 0xf3, 0xbe,
  0x2e, 0x0c, 0x12, 0xbe, 0x30, 0xff, 0x11, 0xbf, 0x6d, 0x4e, 0x84, 0x3f,
  0xd2, 0xdb, 0xae, 0x3d, 0x8d, 0x04, 0xc2, 0xbe, 0xf7, 0x37, 0x05, 0x3d,
  0xcb, 0x2b, 0x1f, 0x3e, 0xda, 0xdf, 0xfe, 0xbe, 0x32, 0xea, 0xc1, 0xbe,
  0x50, 0xe2, 0x14, 0xbe, 0x49, 0x83, 0x47, 0xbe, 0x2f, 0x7f, 0x98, 0xbc,
  0x7d, 0x54, 0x2d, 0xbe, 0x72, 0x6c, 0x38, 0x3e, 0x61, 0x65, 0x55, 0x3e,
  0x31, 0x8e, 0xef, 0xbd, 0x9c, 0xcc, 0x84, 0xbe, 0xf0, 0x98, 0x09, 0x3c,
  0x7f, 0x49, 0xa9, 0x3f, 0xdd, 0x0b, 0xce, 0xbc, 0x6f, 0xa5, 0xa4, 0x3d,
  0x1b, 0xe4, 0x15, 0x3d, 0x3e, 0x04, 0x85, 0x3d, 0x38, 0xbb, 0x43, 0x3d,
  0xef, 0x91, 0x66, 0xbe, 0xa5, 0x2b, 0xc1, 0x3b, 0x70, 0xf3, 0x66, 0xbd,
  0x3b, 0x6c, 0x27, 0x3e, 0x76, 0x05, 0xd0, 0xbd, 0x77, 0xb4, 0x72, 0x3e,
  0x1d, 0x3a, 0x93, 0x3e, 0xdc, 0x1d, 0xea, 0xbd, 0xa0, 0x7b, 0xc4, 0xbd,
  0x5f, 0x3e, 0x0d, 0xbe, 0xe3, 0x2f, 0xc1, 0x3f, 0xdb, 0x08, 0xc1, 0xbc,
  0x3b, 0x28, 0x89, 0x3e, 0x53, 0x4a, 0x47, 0xbd, 0x6b, 0x7b, 0xd4, 0xbd,
  0x0c, 0x60, 0xef, 0xbb, 0xe9, 0x38, 0x8a, 0xbe, 0x3d, 0x5d, 0x5c, 0xbd,
  0x8b, 0xcc, 0x64, 0x3d, 0xd7, 0x81, 0x19, 0x3e, 0x4d, 0x4b, 0x17, 0xbd,
  0x96, 0xbd, 0x71, 0x3e, 0x85, 0xad, 0x9c, 0xbd, 0xdd, 0x72, 0x02, 0xbe,
  0x12, 0xd0, 0xcf, 0xb9, 0x16, 0xc7, 0x56, 0x3d, 0x05, 0xe2, 0xd1, 0x3f,
  0x11, 0xb6, 0x4f, 0xbb, 0xf8, 0x03, 0xcc, 0x3d, 0x72, 0x7c, 0xa5, 0xba,
  0x90, 0xae, 0x53, 0x3d, 0x48, 0x65, 0x9b, 0x3c, 0x7b, 0xeb, 0xdf, 0xbe,
  0xaf, 0xac, 0x96, 0xbe, 0x42, 0x58, 0xf1, 0x3a, 0x49, 0x02, 0x55, 0x3e,
  0xb0, 0x44, 0x9b, 0xbb, 0x88, 0x8a, 0xd2, 0x3d, 0xa6, 0x87, 0x68, 0x3e,
  0xd5, 0xd5, 0x5b, 0xbd, 0x7c, 0x5b, 0xae, 0xbd, 0xd7, 0x46, 0x9a, 0xbe,
  0x13, 0xd4, 0xcf, 0x3f, 0xbd, 0x79, 0x95, 0xbb, 0x94, 0xdf, 0x9f, 0xbd,
  0x28, 0x4d, 0x76, 0xbc, 0x80, 0xca, 0x5e, 0x3d, 0xa4, 0x4d, 0x15, 0xbe,
  0x11, 0xa7, 0x2a, 0xbf, 0xf3, 0x6a, 0x43, 0xbe, 0x4a, 0xd2, 0x77, 0xbe,
  0xfd, 0x50, 0xe6, 0x3d, 0x77, 0x59, 0xce, 0xbe, 0x5a, 0xbe, 0x0c, 0x3e,
  0x1d, 0x05, 0x9c, 0x3e, 0x3f, 0x6c, 0xeb, 0xbb, 0xca, 0x6f, 0x02, 0xbf,
  0xf2, 0xe6, 0xc8, 0xbe, 0xce, 0xc7, 0x8b, 0x3f, 0xc8, 0xb9, 0x65, 0xbb,
  0xda, 0xe4, 0xd6, 0xbe, 0xa0, 0x9a, 0x68, 0xbd, 0xf5, 0xb9, 0x22, 0xbe,
  0x7c, 0x07, 0x0e, 0xbf, 0x43, 0x41, 0xef, 0xbe, 0x6d, 0x13, 0x61, 0xbe,
  0x7a, 0x24, 0x1f, 0xbe, 0xde, 0xd6, 0x5e, 0x3e, 0x7e, 0x44, 0x9b, 0xbe,
  0x7a, 0x9b, 0x19, 0x3e, 0x85, 0x92, 0xd4, 0x3e, 0xf4, 0xf8, 0x5a, 0xbc,
  0x98, 0x9c, 0x67, 0xbe, 0xa4, 0xcc, 0x2d, 0x3c, 0xb0, 0x36, 0xb5, 0x3b,
  0x98, 0xa4, 0x44, 0xbc, 0xab, 0x5c, 0x59, 0xbe, 0x92, 0xc2, 0xc1, 0xbd,
  0x99, 0xe4, 0x0c, 0xbd, 0xe4, 0xa4, 0xb5, 0xbc, 0x2e, 0x45, 0x9d, 0xbd,
  0xb0, 0x96, 0x91, 0xbe, 0xd3, 0x41, 0xe0, 0xbd, 0x75, 0x2f, 0x0b, 0x3e,
  0x8b, 0x5c, 0x25, 0xbd, 0xcd, 0x6f, 0xf6, 0x3d, 0x66, 0xbb, 0x5e, 0xbc,
  0xef, 0x5b, 0x01, 0xbf, 0x6a, 0x0c, 0x8d, 0x3e, 0x68, 0x3b, 0xba, 0x3e,
  0x7f, 0x52, 0x75, 0xbe, 0x84, 0x11, 0xa4, 0x3d, 0x21, 0x5b, 0x86, 0x3d,
  0xc2, 0x73, 0xa2, 0xbe, 0x2d, 0x9f, 0xae, 0x3e, 0x16, 0x82, 0xa2, 0x3e,
  0x4f, 0x76, 0x9d, 0xbd, 0x6b, 0x40, 0xb5, 0x3d, 0x93, 0x7f, 0xa9, 0x3d,
  0xf7, 0x54, 0x8a, 0x3c, 0x12, 0xd4, 0x44, 0x3e, 0x1a, 0x29, 0xe0, 0xba,
  0xe2, 0xb1, 0x65, 0x3d, 0x67, 0xd9, 0x83, 0xbe, 0x3d, 0x19, 0xa2, 0x3d,
  0x31, 0x91, 0xc3, 0xbd, 0x0d, 0x41, 0x0a, 0x3e, 0xb6, 0x47, 0x91, 0xbd,
  0x5c, 0xea, 0x89, 0x3e, 0xa2, 0xd8, 0x4d, 0xbe, 0x53, 0xd6, 0x4b, 0xbd,
  0x90, 0x60, 0x06, 0x3e, 0x2e, 0x07, 0x16, 0xbe, 0x20, 0x0c, 0xe6, 0xbd,
  0xda, 0x78, 0x45, 0x3e, 0x4e, 0x92, 0x89, 0xba, 0xe2, 0x22, 0xc9, 0xbe,
  0x4f, 0x80, 0x64, 0xbd, 0xe9, 0xfa, 0xb3, 0x3d, 0x9c, 0x2a, 0xa7, 0xbe,
  0x1a, 0xa2, 0x9c, 0x3e, 0x6e, 0x7f, 0x8a, 0xbe, 0x2b, 0x98, 0xa9, 0x3e,
  0x55, 0x4c, 0xd3, 0xbd, 0x11, 0xba, 0x3e, 0xbc, 0xf0, 0xd8, 0xdc, 0x3c,
  0xd1, 0x6d, 0x1b, 0x3b, 0x73, 0xce, 0xa0, 0x3d, 0x46, 0x62, 0x4d, 0xbe,
  0x85, 0xb0, 0xf1, 0xbd, 0xff, 0x01, 0x36, 0x3e, 0xae, 0xf7, 0x48, 0xbf,
  0x85, 0x3e, 0x95, 0xbe, 0xc4, 0x0c, 0xc0, 0xba, 0x5d, 0x90, 0x26, 0xbd,
  0x7f, 0xf1, 0x85, 0xbe, 0x45, 0xb1, 0xbf, 0x3d, 0x8c, 0x42, 0xb3, 0xbe,
  0x67, 0x58, 0xce, 0x3e, 0x92, 0xaf, 0xb9, 0xbd, 0x42, 0xc2, 0x7a, 0x3d,
  0xc4, 0x1e, 0x11, 0x3d, 0x86, 0x0d, 0x9d, 0xbd, 0x96, 0xef, 0xe2, 0x3d,
  0x0a, 0xcc, 0x82, 0xbe, 0x96, 0xce, 0x6b, 0xbe, 0x4a, 0xa8, 0x08, 0x3a,
  0x08, 0x88, 0x05, 0xbf, 0x2d, 0x13, 0x84, 0xbe, 0x7b, 0xc1, 0x52, 0xbe,
  0x15, 0xc6, 0x0d, 0xbf, 0x23, 0x1f, 0x27, 0xbe, 0x14, 0x3e, 0x8c, 0xbd,
  0x14, 0xd0, 0x1b, 0xbe, 0x7d, 0x4a, 0xc6, 0x3e, 0xaa, 0x9a, 0xc9, 0xbd,
  0x0e, 0x2c, 0xe4, 0x3d, 0xc9, 0xee, 0xc7, 0xbd, 0xb9, 0x9a, 0xba, 0xbd,
  0xb2, 0x7a, 0xe3, 0x3e, 0x16, 0x09, 0x74, 0xbe, 0x02, 0x57, 0x8b, 0xbe,
  0xda, 0xd7, 0x2a, 0x3d, 0x75, 0x78, 0xcd, 0xbd, 0x23, 0xef, 0xc1, 0x3e,
  0x1a, 0xf5, 0x14, 0xbe, 0xfd, 0x8d, 0x2a, 0xbf, 0x47, 0xd4, 0x90, 0xbd,
  0x44, 0xaf, 0xe0, 0x3d, 0x7f, 0x26, 0xaf, 0x3d, 0xb2, 0x6a, 0xec, 0x3e,
  0x6a, 0x71, 0x15, 0x3c, 0x66, 0x4c, 0x02, 0x3e, 0x1b, 0x3f, 0xc3, 0xbc,
  0x5a, 0xd9, 0x7b, 0xbd, 0x6d, 0x1d, 0x96, 0x3e, 0x4c, 0xb9, 0x3e, 0x3d,
  0x5b, 0x8d, 0xa1, 0x3d, 0x7e, 0x48, 0x20, 0x3e, 0x65, 0x96, 0x97, 0x3d,
  0x0c, 0x67, 0x97, 0x3e, 0x58, 0x9e, 0x0d, 0xbe, 0x56, 0xef, 0x0a, 0xbe,
  0x81, 0x35, 0xc4, 0xbe, 0xc5, 0xad, 0x02, 0x3e, 0xc5, 0x9a, 0x82, 0x3b,
  0x27, 0x33, 0xc3, 0xbd, 0x65, 0x44, 0x08, 0xbe, 0x5c, 0xeb, 0x69, 0x3e,
  0x5d, 0x9b, 0x4b, 0xbd, 0xdf, 0x92, 0x1d, 0x3d, 0xfd, 0xac, 0x17, 0x3e,
  0x6a, 0x82, 0x68, 0xbd, 0x52, 0xb5, 0x3d, 0xbd, 0xa2, 0xbd, 0xea, 0xbc,
  0xdb, 0x56, 0x8f, 0x3d, 0xea, 0xa6, 0xcc, 0x3e, 0xd3, 0x79, 0x07, 0x3c,
  0x38, 0x9e, 0xb2, 0x3c, 0x81, 0xe3, 0x59, 0xbe, 0x4c, 0x03, 0xb1, 0x3d,
  0xf2, 0x63, 0x59, 0x3d, 0x2e, 0xd1, 0xde, 0x3b, 0x40, 0x03, 0xa4, 0xbd,
  0xb5, 0x4b, 0x72, 0xbe, 0xc6, 0xea, 0xaa, 0xbd, 0xc2, 0x62, 0x60, 0xbe,
  0xf7, 0xee, 0x03, 0xbe, 0x61, 0x00, 0x37, 0xbd, 0x01, 0x42, 0x35, 0xbe,
  0x73, 0x19, 0xf9, 0x3b, 0x17, 0x36, 0x8b, 0xbd, 0xcf, 0x58, 0x4b, 0xbe,
  0xac, 0x88, 0xb4, 0xbd, 0x63, 0xa0, 0x37, 0xbd, 0x0e, 0x6b, 0x06, 0xbe,
  0x77, 0x68, 0x79, 0xbe, 0x3b, 0xe4, 0xe7, 0xbc, 0x9e, 0xd9, 0xda, 0x3c,
  0x60, 0x1b, 0x94, 0xbc, 0x51, 0x43, 0xe7, 0xbc, 0x3e, 0x2a, 0xc4, 0xbd,
  0x77, 0xf6, 0x97, 0x3a, 0x1c, 0x11, 0x9c, 0xbd, 0x64, 0x39, 0xa3, 0xbd,
  0x5d, 0x6b, 0x32, 0xbe, 0x8a, 0xa1, 0x20, 0xbe, 0x5d, 0xa7, 0xef, 0xbc,
  0x56, 0x43, 0x45, 0xbe, 0xcc, 0xeb, 0x32, 0xbd, 0x98, 0x23, 0x7e, 0xbe,
  0x5a, 0x6d, 0x4d, 0xbe, 0x79, 0x96, 0xe1, 0x3c, 0x3b, 0x79, 0xb9, 0x3d,
  0xc1, 0xbb, 0xa7, 0x3a, 0xe5, 0xeb, 0xc2, 0xbe, 0x85, 0x34, 0x8c, 0xbd,
  0xab, 0xfb, 0x46, 0x3d, 0x30, 0x92, 0x03, 0xbe, 0xa7, 0xbd, 0x7d, 0xbe,
  0xd8, 0xca, 0x6d, 0xbe, 0xf4, 0xb2, 0x45, 0xbd, 0x59, 0xc1, 0xe1, 0x3d,
  0x70, 0xf0, 0x3d, 0xbd, 0x30, 0xd9, 0xf2, 0xbd, 0x93, 0xbe, 0xbf, 0xbd,
  0x7a, 0xca, 0x07, 0xbe, 0x84, 0x98, 0xa0, 0xbe, 0xb0, 0x15, 0xfe, 0x3d,
  0x18, 0x03, 0x98, 0x3c, 0x97, 0xdd, 0x37, 0xbe, 0x8f, 0x01, 0x28, 0xbe,
  0xb5, 0x75, 0x83, 0xbe, 0x7d, 0x26, 0x9d, 0x3d, 0x24, 0xd8, 0x18, 0x3e,
  0xea, 0xe1, 0x61, 0xbe, 0xf1, 0x52, 0x3b, 0xbe, 0x82, 0xa9, 0x95, 0xbe,
  0x06, 0x42, 0x21, 0xbd, 0xce, 0xb8, 0xe6, 0x3d, 0x6a, 0xeb, 0x65, 0xbd,
  0x6c, 0xdd, 0x57, 0x3d, 0x8b, 0x70, 0x53, 0xbe, 0xc7, 0xcb, 0xc2, 0xbd,
  0xe4, 0x6b, 0x65, 0x3d, 0xce, 0xd7, 0xf1, 0xbd, 0xee, 0x18, 0x6f, 0xbd,
  0xcf, 0x28, 0x75, 0xbe, 0xcf, 0x8c, 0xf3, 0xbd, 0xa7, 0xb3, 0x5e, 0xbe,
  0x95, 0x38, 0xab, 0xbd, 0x41, 0x38, 0xa4, 0xbd, 0xd2, 0x05, 0x08, 0xbe,
  0xa2, 0xeb, 0x9d, 0xbe, 0x90, 0x9d, 0x20, 0x3d, 0x22, 0x4c, 0x62, 0xbe,
  0x32, 0x36, 0x3f, 0xbe, 0x97, 0xad, 0xaf, 0xbd, 0x4e, 0xae, 0xea, 0xbd,
  0xe8, 0x48, 0x09, 0xbd, 0x60, 0x47, 0x0f, 0x3e, 0x9f, 0x2f, 0x20, 0xbe,
  0xb5, 0x89, 0x9b, 0x3d, 0x6d, 0x58, 0x6c, 0xbe, 0x23, 0xf9, 0xdd, 0xbd,
  0xa7, 0x59, 0xa9, 0xbd, 0x3c, 0x66, 0x0b, 0x3e, 0x1f, 0x04, 0xfa, 0x3d,
  0xa5, 0x27, 0x05, 0x3d, 0xf8, 0x19, 0xc4, 0xbd, 0x0b, 0x6e, 0x51, 0xbe,
  0x66, 0xa9, 0x51, 0x3c, 0x07, 0x17, 0xf3, 0x3d, 0xaa, 0x35, 0xbf, 0xbc,
  0x92, 0xd7, 0x86, 0x3d, 0x00, 0x20, 0x00, 0xbd, 0xcc, 0x57, 0x89, 0xbe,
  0x92, 0x43, 0xbc, 0xbd, 0x96, 0x9d, 0xb6, 0xbd, 0xc1, 0x48, 0x88, 0xbe,
  0x59, 0xd1, 0x00, 0x3d, 0xf6, 0xdc, 0x05, 0xbe, 0x35, 0xf4, 0x66, 0xbe,
  0x5e, 0x36, 0x7b, 0x3d, 0x8f, 0x1b, 0xd6, 0xbc, 0x3b, 0x79, 0x2a, 0xbe,
  0x21, 0x2c, 0xff, 0xbd, 0xef, 0xab, 0x87, 0xbb, 0x71, 0xf5, 0x82, 0xbd,
  0x41, 0x6a, 0x02, 0xbe, 0xca, 0x3e, 0x15, 0xbe, 0xc3, 0x57, 0x54, 0xbe,
  0xa1, 0x27, 0xe0, 0xbc, 0x2e, 0xb7, 0x5b, 0xbe, 0x5c, 0xed, 0xd3, 0x3e,
  0x68, 0x3c, 0x1f, 0xbe, 0xb3, 0xd2, 0x26, 0x3d, 0x48, 0x1f, 0xa4, 0xbd,
  0xb8, 0xee, 0xe7, 0x3d, 0xae, 0xa0, 0x6d, 0xbd, 0xff, 0xaf, 0x64, 0xbe,
  0xc9, 0x83, 0xbf, 0xbd, 0x4a, 0x74, 0x09, 0x3c, 0x12, 0xac, 0x3e, 0xbe,
  0x31, 0xf4, 0x0f, 0x3e, 0x63, 0x80, 0x8a, 0xbc, 0x99, 0xfe, 0x64, 0xbe,
  0x56, 0x7e, 0x86, 0xbd, 0x1f, 0xa2, 0x72, 0xbe, 0x5f, 0x92, 0x3c, 0xbe,
  0x1d, 0xad, 0x22, 0x3f, 0x84, 0x73, 0x8f, 0xbd, 0xfa, 0xeb, 0x42, 0xbe,
  0xef, 0xcd, 0x2a, 0xbc, 0x08, 0x34, 0x3e, 0xbd, 0xea, 0x61, 0x35, 0x3e,
  0x42, 0xa8, 0x27, 0xbe, 0x0f, 0x48, 0x82, 0xbe, 0x55, 0x65, 0x0a, 0x3d,
  0xc6, 0xef, 0x2a, 0xbe, 0x3c, 0xf1, 0xca, 0x3c, 0x8f, 0xdb, 0x85, 0xbe,
  0xfa, 0x03, 0x48, 0xbe, 0x9c, 0xba, 0x2a, 0xbe, 0x86, 0xc6, 0x6e, 0xbe,
  0x80, 0x24, 0x3d, 0xbe, 0xd2, 0xfb, 0x61, 0x3f, 0xf8, 0x05, 0x33, 0xbe,
  0x7f, 0xe2, 0x46, 0xbd, 0x96, 0x28, 0x51, 0xbe, 0x3f, 0x93, 0x1d, 0x3e,
  0xf9, 0x8c, 0x09, 0xbe, 0x38, 0xf2, 0xc5, 0xbd, 0x73, 0x9d, 0x54, 0xbd,
  0x1d, 0xf6, 0x2f, 0x3d, 0xdd, 0xd6, 0x44, 0x3e, 0x0e, 0xbd, 0xf0, 0xbd,
  0x3e, 0x76, 0xf8, 0xbd, 0x96, 0xab, 0xeb, 0x3a, 0x94, 0x6f, 0x7b, 0xba,
  0x74, 0xf5, 0x1d, 0xbe, 0x21, 0xe1, 0xf6, 0x3d, 0x6c, 0xe7, 0x41, 0x3f,
  0x63, 0x09, 0x52, 0x3d, 0xb8, 0x98, 0x87, 0xbe, 0x5b, 0xa5, 0x02, 0xbe,
  0x69, 0x1e, 0x26, 0xbe, 0xd4, 0x63, 0x04, 0x3e, 0x00, 0x3d, 0x47, 0xbe,
  0xdc, 0xbe, 0x86, 0xbe, 0xb1, 0xb8, 0x3b, 0x3e, 0xec, 0x3c, 0xe6, 0xbd,
  0xb2, 0x8b, 0x43, 0xbe, 0x00, 0xa0, 0x59, 0xbd, 0x7a, 0xec, 0x39, 0x3c,
  0x1d, 0xb5, 0x32, 0x3d, 0xf9, 0x00, 0x80, 0xbe, 0xca, 0xad, 0x14, 0xbd,
  0xcf, 0x7b, 0x55, 0x3f, 0x12, 0x83, 0xb2, 0xbe, 0xf7, 0x10, 0xb3, 0xbe,
  0x01, 0xd7, 0x05, 0xbe, 0xc2, 0xe5, 0x05, 0xbe, 0x45, 0xaf, 0x76, 0x3d,
  0x8f, 0x4d, 0x9a, 0x3c, 0x50, 0x29, 0x30, 0xbe, 0x66, 0x5c, 0x4d, 0xbb,
  0x9f, 0xcf, 0xe6, 0xbd, 0x4d, 0xe8, 0xa5, 0x3d, 0x89, 0x7c, 0xf6, 0x3c,
  0x4d, 0x7e, 0x29, 0xbe, 0xac, 0xc4, 0xec, 0xbd, 0x1a, 0x36, 0x0e, 0xbe,
  0x1d, 0x1c, 0xf7, 0xbd, 0xfc, 0xb8, 0x5a, 0x3f, 0x47, 0xbd, 0x13, 0xbe,
  0x42, 0xe5, 0x28, 0xbe, 0xf0, 0xfb, 0x45, 0xbe, 0x6a, 0x7f, 0x07, 0xbe,
  0xdd, 0xef, 0x40, 0x3d, 0xf7, 0x40, 0x8f, 0xbe, 0x0d, 0xac, 0xb9, 0xbe,
  0x67, 0x33, 0x40, 0x3c, 0xee, 0x48, 0x30, 0xbd, 0x72, 0x39, 0x55, 0x3d,
  0xa6, 0x34, 0xc0, 0x3d, 0xbe, 0xfb, 0x60, 0x3d, 0x7d, 0xdf, 0xba, 0xbd,
  0x81, 0xe9, 0x23, 0xbe, 0x83, 0x4f, 0x2c, 0xbe, 0x9b, 0x6c, 0x12, 0xbe,
  0x1b, 0xd6, 0x2e, 0xbe, 0x3f, 0x3a, 0x36, 0xbd, 0xef, 0xfe, 0x4e, 0xbc,
  0x3b, 0x7d, 0x99, 0xbb, 0xe8, 0x50, 0x06, 0xbe, 0x9f, 0xbe, 0x8e, 0xbe,
  0x2c, 0xc3, 0xa3, 0xbe, 0x99, 0xab, 0x2c, 0xbe, 0x4f, 0x51, 0x20, 0x3b,
  0xdc, 0x52, 0x39, 0xbd, 0x34, 0x89, 0x85, 0xbe, 0xbc, 0x37, 0xb1, 0xbe,
  0xc9, 0x15, 0x98, 0x3d, 0x40, 0x78, 0xa9, 0x3d, 0xc1, 0xf6, 0xcb, 0xbd,
  0x71, 0xab, 0x74, 0x3d, 0x8e, 0x2d, 0xeb, 0xbd, 0xa7, 0x5e, 0x8a, 0x3c,
  0x10, 0xfb, 0x3b, 0xbe, 0xd8, 0x69, 0xb4, 0xbe, 0x23, 0xca, 0xdf, 0x3c,
  0xa2, 0x24, 0x6b, 0xbe, 0x2e, 0xae, 0xc1, 0xbd, 0x02, 0x60, 0x49, 0x3e,
  0x0a, 0xa8, 0x1c, 0x3d, 0x21, 0x8c, 0xe0, 0xbd, 0x9f, 0x0a, 0x1f, 0x3e,
  0x85, 0xca, 0x0d, 0x3e, 0xff, 0xca, 0x26, 0x3d, 0x24, 0x24, 0x33, 0x3e,
  0x48, 0xdc, 0x5b, 0xbe, 0x02, 0xee, 0x8c, 0x3e, 0x91, 0x7f, 0x65, 0xbd,
  0xfe, 0x81, 0x6f, 0xbd, 0xc0, 0xdb, 0x66, 0xbd, 0x93, 0x26, 0x80, 0xbd,
  0xca, 0x6e, 0x59, 0x3e, 0x44, 0x6d, 0xe4, 0xbd, 0x2d, 0x57, 0xa8, 0x3a,
  0xba, 0x12, 0x8f, 0x3d, 0x83, 0x95, 0x68, 0x3e, 0x99, 0x7c, 0x87, 0xbe,
  0x79, 0x36, 0x60, 0x3e, 0xc4, 0xeb, 0x23, 0x3e, 0x81, 0xb5, 0x94, 0x3d,
  0x3c, 0xf0, 0x35, 0x3d, 0x6d, 0xd8, 0xb0, 0xbe, 0xa8, 0x5b, 0x12, 0x3f,
  0x3c, 0x8f, 0x2a, 0xbd, 0x4a, 0xea, 0xe9, 0xbd, 0x1f, 0xdf, 0xe4, 0x3c,
  0xb4, 0x1c, 0xd6, 0x3c, 0x53, 0xe2, 0xa3, 0x3c, 0xb0, 0x35, 0x70, 0xbe,
  0xa7, 0xb0, 0xff, 0x3c, 0x55, 0xbd, 0xec, 0x3c, 0x99, 0x89, 0x84, 0x3e,
  0xdc, 0x84, 0xc9, 0xbe, 0x5c, 0xfa, 0xee, 0x3d, 0x06, 0xd2, 0x1a, 0x3e,
  0x54, 0x4d, 0x33, 0x3d, 0x87, 0x08, 0xf7, 0x3d, 0x4b, 0x4f, 0x81, 0xbe,
  0x15, 0x5e, 0x01, 0x3f, 0xd6, 0xa7, 0x16, 0xbc, 0x40, 0xbc, 0xbd, 0xbd,
  0x9f, 0x2a, 0x76, 0x3c, 0x84, 0x3d, 0x28, 0x3d, 0xf0, 0xde, 0x29, 0x3e,
  0xcd, 0x68, 0xe2, 0xbe, 0x80, 0xb2, 0x1c, 0xbb, 0xe8, 0x90, 0x1d, 0x3d,
  0x93, 0xd5, 0x2d, 0x3e, 0xdf, 0x18, 0xd8, 0xbd, 0x25, 0x86, 0xbe, 0x3d,
  0xc3, 0x1e, 0x6c, 0x3e, 0x1b, 0x58, 0x50, 0xbd, 0x99, 0xfd, 0xb7, 0x3d,
  0x18, 0x26, 0xbd, 0xbe, 0x0d, 0xb6, 0xc2, 0x3e, 0xe8, 0x4d, 0x83, 0xbc,
  0x4a, 0xa9, 0x83, 0xbd, 0xb9, 0x5f, 0x44, 0x3d, 0x45, 0x3d, 0x53, 0x3c,
  0xe1, 0xfe, 0x5a, 0x3d, 0xa9, 0xb1, 0xd4, 0xbe, 0x92, 0xb5, 0x81, 0x3c,
  0xfa, 0x8c, 0xc9, 0xbd, 0x59, 0x46, 0x0e, 0x3e, 0xdd, 0x61, 0x09, 0xbe,
  0x47, 0x47, 0x1c, 0x3e, 0x95, 0x71, 0x98, 0x3e, 0x0f, 0xdf, 0x28, 0xbe,
  0xa4, 0xb6, 0x06, 0x3e, 0x9e, 0x5f, 0x67, 0xbe, 0x47, 0x51, 0xd0, 0x3e,
  0x81, 0x51, 0x13, 0xbd, 0xff, 0x01, 0x73, 0xbd, 0x06, 0x98, 0xc6, 0x3c,
  0x3f, 0xc3, 0x48, 0x3d, 0xf7, 0x54, 0xfa, 0xba, 0x6a, 0x1a, 0xc4, 0xbe,
  0xdf, 0x01, 0xac, 0x3c, 0x41, 0x51, 0x8d, 0xbe, 0x7f, 0x62, 0xa9, 0x3e,
  0x75, 0x19, 0x18, 0xbb, 0x0e, 0x0d, 0x49, 0x3e, 0xc7, 0xaa, 0x90, 0x3e,
  0x03, 0x45, 0x7b, 0xbe, 0xb7, 0xaa, 0x1e, 0xbe, 0x3d, 0xf5, 0x49, 0x3e,
  0x4f, 0x7a, 0x91, 0xbe, 0x38, 0xb4, 0x1b, 0x3d, 0x76, 0xcc, 0x87, 0xbd,
  0x46, 0x78, 0x65, 0x3d, 0xed, 0x12, 0x1d, 0x3d, 0xc9, 0x28, 0x98, 0x3d,
  0xed, 0x6c, 0x0a, 0xbe, 0xd6, 0xab, 0x78, 0x3c, 0xcb, 0x71, 0x0e, 0xbe,
  0xef, 0x85, 0x6e, 0x3d, 0x19, 0xf4, 0x60, 0x3e, 0x99, 0x92, 0xe2, 0xbd,
  0x03, 0x8a, 0x49, 0x3d, 0xd3, 0x4e, 0x1e, 0xbf, 0x4b, 0xf1, 0xcf, 0xbe,
  0x2c, 0xf3, 0x9c, 0xbe, 0xad, 0x6d, 0x59, 0x3f, 0x7a, 0xdf, 0x29, 0xbd,
  0xfe, 0xce, 0x82, 0xbe, 0x38, 0x47, 0x62, 0x3d, 0x70, 0x90, 0xe7, 0x3d,
  0x43, 0xa6, 0x47, 0xbe, 0xa1, 0xb9, 0x43, 0xbe, 0x47, 0x38, 0x11, 0xbe,
  0x2d, 0x0f, 0xb1, 0x3d, 0x96, 0x9a, 0x60, 0xbd, 0xc7, 0x9b, 0x9a, 0xbe,
  0x9b, 0x6e, 0x2e, 0x3e, 0x5d, 0xe0, 0x61, 0x3e, 0xae, 0x6d, 0x5b, 0xbe,
  0x87, 0x4a, 0xe5, 0xbe, 0x29, 0x76, 0xa6, 0xbe, 0xc8, 0x01, 0x7b, 0x3f,
  0x0d, 0xcd, 0x15, 0xbd, 0xa3, 0xdb, 0x36, 0x3d, 0x69, 0xa2, 0x63, 0x3d,
  0x26, 0x06, 0x59, 0x3d, 0xc5, 0x62, 0xf8, 0x3c, 0xaf, 0xd3, 0x21, 0xbf,
  0x68, 0x9d, 0x70, 0xbd, 0x1b, 0x41, 0xd8, 0xbc, 0xa5, 0x43, 0x41, 0x3e,
  0xd2, 0xc8, 0x79, 0xbe, 0x86, 0xf3, 0x06, 0x3e, 0x98, 0x69, 0x21, 0x3e,
  0x40, 0x7b, 0x4b, 0xbe, 0x0b, 0xf1, 0x8f, 0xbe, 0x26, 0xa0, 0x45, 0xbe,
  0x24, 0xe9, 0x99, 0x3f, 0xac, 0x97, 0xa5, 0xbc, 0xf0, 0xf8, 0xd2, 0x3e,
  0x21, 0xef, 0x09, 0xbd, 0x50, 0x4c, 0xd5, 0x3c, 0xad, 0x02, 0x3f, 0xbe,
  0x18, 0x0b, 0xd8, 0xbe, 0x58, 0xe1, 0x31, 0xbe, 0xd8, 0x0b, 0x29, 0x3e,
  0x23, 0x5d, 0x39, 0x3e, 0x56, 0xba, 0x3a, 0xbe, 0x3a, 0x05, 0x72, 0x3e,
  0x12, 0x88, 0x21, 0x3e, 0x33, 0x2b, 0xcb, 0xbc, 0x8f, 0x74, 0x09, 0xbd,
  0x3e, 0xc2, 0x18, 0xbe, 0x23, 0xb2, 0x8e, 0x3f, 0xb4, 0xf3, 0x4f, 0xbc,
  0xde, 0x68, 0xf6, 0x3b, 0x80, 0x2e, 0x54, 0xbd, 0x0b, 0xcc, 0xba, 0xbd,
  0xa2, 0x5b, 0xa0, 0x3b, 0x30, 0x25, 0xba, 0xbe, 0x9f, 0x30, 0x41, 0xbe,
  0xa4, 0xf4, 0x3a, 0x3e, 0x59, 0x21, 0x1f, 0x3e, 0x93, 0x40, 0x0b, 0x3e,
  0x33, 0x09, 0xa8, 0x3d, 0xc5, 0x98, 0x96, 0x3e, 0xba, 0x39, 0x01, 0xbe,
  0x8e, 0x7d, 0xeb, 0xbd, 0x7e, 0x5e, 0xd1, 0xbe, 0x4e, 0x52, 0x8b, 0x3f,
  0x82, 0x97, 0x19, 0xbd, 0x83, 0x5c, 0x4d, 0xbe, 0x5b, 0xf2, 0x3a, 0xbd,
  0x0a, 0xea, 0xf8, 0x3c, 0xd5, 0xbb, 0xe9, 0xbe, 0xba, 0xb1, 0xc6, 0xbe,
  0xff, 0xec, 0x8a, 0xbe, 0xf8, 0x63, 0x50, 0xbe, 0xc4, 0x7c, 0x2c, 0x3e,
  0x2d, 0x6c, 0xd5, 0xbd, 0xbe, 0xf8, 0x4e, 0x3e, 0xe1, 0x3a, 0x93, 0x3e,
  0xe4, 0x6a, 0x9c, 0xbc, 0x4e, 0xf6, 0x51, 0xbe, 0x50, 0x26, 0x6d, 0xbe,
  0x56, 0x7b, 0x90, 0x3f, 0xd9, 0x45, 0x23, 0x3c, 0xa5, 0xd4, 0x0d, 0xbe,
  0x7e, 0x33, 0x0b, 0xbe, 0x3c, 0x77, 0x5d, 0xbc, 0xf3, 0x7e, 0x90, 0xbe,
  0xd8, 0x48, 0x90, 0xbe, 0xf3, 0xdb, 0x87, 0xbe, 0x37, 0x2f, 0x58, 0xbe,
  0xd9, 0xe2, 0xf3, 0x3d, 0x32, 0xee, 0xa8, 0x3c, 0x48, 0x5c, 0x46, 0x3e,
  0xe9, 0xad, 0xa0, 0x3e, 0x88, 0x80, 0x8f, 0xbd, 0xaa, 0x25, 0xb3, 0xbe,
  0x72, 0x3c, 0xb1, 0xbe, 0x32, 0x42, 0x67, 0xbd, 0x75, 0x0b, 0x25, 0xbb,
  0xea, 0xdb, 0x25, 0xbe, 0x5c, 0x6e, 0xc2, 0xbd, 0x47, 0xac, 0xbd, 0x3c,
  0x73, 0xed, 0xb7, 0xbe, 0xaa, 0xe2, 0x55, 0xbd, 0xfb, 0xcb, 0x68, 0xbe,
  0xcd, 0x1d, 0x3d, 0xbe, 0x3e, 0xd4, 0xad, 0x3d, 0x8b, 0x48, 0x1f, 0x3d,
  0x44, 0xe4, 0xe8, 0x3c, 0xe5, 0x79, 0x36, 0x3e, 0x1a, 0x93, 0x4d, 0xbe,
  0x97, 0xc9, 0x64, 0xbd, 0x39, 0xc9, 0x6c, 0xbe, 0xee, 0x1d, 0x19, 0x3d,
  0x8c, 0x3b, 0x55, 0xbd, 0xdd, 0xe0, 0xc8, 0xbd, 0xc2, 0x18, 0x61, 0xbd,
  0x00, 0x0f, 0x6e, 0xbe, 0xac, 0xdc, 0xba, 0xbc, 0xa5, 0x45, 0x25, 0x3c,
  0x98, 0x55, 0x1e, 0xbe, 0x74, 0xc8, 0xc5, 0xbd, 0x44, 0x78, 0x64, 0xbe,
  0x10, 0xed, 0xcf, 0xbd, 0x6d, 0x64, 0x64, 0x3d, 0x92, 0x18, 0x66, 0xbe,
  0x8a, 0x8c, 0x34, 0xbd, 0x8a, 0xbf, 0x43, 0x3e, 0x50, 0xa6, 0x57, 0xbc,
  0x1b, 0xf1, 0x94, 0x3c, 0x84, 0xfa, 0xd0, 0xbe, 0xa5, 0x7c, 0x14, 0x3d,
  0x80, 0x8b, 0xbb, 0xbd, 0xae, 0xec, 0xd3, 0xbd, 0x01, 0x7e, 0x3d, 0x3e,
  0xcf, 0x76, 0x6d, 0x3d, 0x4e, 0xfd, 0x40, 0xbe, 0xa9, 0x73, 0x20, 0xbe,
  0x74, 0x35, 0x14, 0xbe, 0xa3, 0x2a, 0x98, 0xbd, 0x5e, 0x09, 0xe7, 0xbd,
  0xc8, 0x0c, 0xff, 0xba, 0x3c, 0xe6, 0x86, 0x3d, 0xd4, 0xd5, 0x46, 0x3e,
  0x96, 0x52, 0x9c, 0x3d, 0x09, 0xdb, 0xa2, 0xbd, 0x87, 0x35, 0x82, 0xbe,
  0x88, 0x91, 0x35, 0x3d, 0x03, 0xf8, 0xc7, 0xbd, 0xfd, 0x4d, 0x76, 0x3c,
  0xe5, 0x69, 0x05, 0x3d, 0xfd, 0xcb, 0xde, 0xbd, 0x59, 0x82, 0x25, 0xbe,
  0xb5, 0x54, 0x2f, 0x3c, 0x6f, 0x97, 0x14, 0xbe, 0xb4, 0x09, 0xb8, 0xbd,
  0x8b, 0x3f, 0x5c, 0x3d, 0xae, 0x67, 0x87, 0x3d, 0x01, 0x58, 0x07, 0xbe,
  0x0f, 0x4e, 0xbf, 0x3d, 0x18, 0xc1, 0x2e, 0xbe, 0x84, 0x06, 0x15, 0x3d,
  0x83, 0x08, 0xec, 0xbd, 0x4e, 0xec, 0x04, 0x3e, 0x3b, 0xed, 0x17, 0xbc,
  0xea, 0xa0, 0x83, 0xbd, 0x1b, 0x92, 0x15, 0x3e, 0x65, 0x64, 0x4f, 0xbe,
  0x45, 0x66, 0x8e, 0xbe, 0x9f, 0x30, 0x5c, 0x3d, 0x00, 0xe8, 0x94, 0x3d,
  0xb1, 0x99, 0x04, 0x3d, 0x3d, 0x41, 0x12, 0x3d, 0x7f, 0x7e, 0xb8, 0xbd,
  0x5f, 0x14, 0x0a, 0xbe, 0x0b, 0xf3, 0x0a, 0x3e, 0x4a, 0xa4, 0x73, 0x3d,
  0x44, 0xe6, 0x68, 0xbd, 0xd0, 0xf5, 0x52, 0xbe, 0x36, 0x7e, 0x22, 0x3e,
  0xee, 0x48, 0x2d, 0x3c, 0x36, 0xa7, 0xe6, 0xbc, 0x43, 0xc7, 0x1d, 0xbe,
  0xbb, 0x68, 0x3f, 0xbe, 0x67, 0x4e, 0x82, 0xbe, 0x86, 0xf6, 0x14, 0x3d,
  0x5c, 0xc8, 0x4a, 0xbe, 0xf9, 0x60, 0xf7, 0xbd, 0xb7, 0x7d, 0xbd, 0x3d,
  0xe2, 0x58, 0x0f, 0x3d, 0x28, 0x05, 0x89, 0xbd, 0x65, 0xbb, 0x29, 0x3d,
  0xfd, 0x31, 0x58, 0xbe, 0x8b, 0x54, 0xa5, 0xbc, 0x5f, 0x02, 0xc6, 0xbd,
  0x19, 0xeb, 0x3b, 0xbe, 0x7c, 0x04, 0x28, 0xbe, 0x96, 0x9d, 0x04, 0x3e,
  0xe8, 0x32, 0x9c, 0xbd, 0x7c, 0x17, 0x17, 0x3d, 0xf5, 0x26, 0x60, 0x3c,
  0x0f, 0x80, 0xb4, 0x3b, 0xbf, 0x3a, 0xa3, 0xbd, 0xd3, 0xd3, 0x2d, 0x3e,
  0xd8, 0x66, 0x74, 0xbe, 0x5e, 0x1e, 0x04, 0xbe, 0x82, 0x8a, 0x5d, 0xbe,
  0x37, 0x01, 0x57, 0x3d, 0x06, 0x0e, 0x17, 0xbe, 0x12, 0x37, 0x13, 0xbe,
  0x8d, 0x51, 0x90, 0xbe, 0xd3, 0xe5, 0xef, 0xbd, 0xd4, 0xb9, 0xc5, 0x3c,
  0x1c, 0x58, 0x7b, 0xbe, 0xab, 0xd5, 0x18, 0x3e, 0x94, 0xea, 0x17, 0xbe,
  0xeb, 0x06, 0x0c, 0xbe, 0xae, 0xcd, 0x03, 0x3e, 0xcf, 0x6c, 0x82, 0xbe,
  0x4c, 0xb7, 0xb9, 0xbd, 0x60, 0xd9, 0x27, 0xbe, 0xff, 0xc7, 0xb0, 0xbd,
  0x0b, 0x25, 0x9d, 0xbd, 0x52, 0xc1, 0x1b, 0xbd, 0x12, 0x9d, 0x03, 0xbe,
  0xfe, 0x53, 0x1e, 0xbe, 0xa9, 0x73, 0x3a, 0x3c, 0x25, 0x42, 0xe4, 0xbd,
  0x9d, 0xec, 0xbd, 0x3e, 0xf6, 0x10, 0xe7, 0x3e, 0x67, 0x33, 0xb6, 0xbd,
  0x42, 0x46, 0x4a, 0x3d, 0x04, 0x16, 0xdb, 0xbd, 0x56, 0x85, 0x0d, 0xbe,
  0x7b, 0xb0, 0xd5, 0x3b, 0x76, 0xec, 0x08, 0x3e, 0xfb, 0x44, 0xb6, 0xbe,
  0xea, 0x87, 0x99, 0xbe, 0xf6, 0x55, 0x47, 0xbc, 0xa3, 0x8a, 0x84, 0xbe,
  0xbb, 0x2d, 0xa9, 0x3d, 0x28, 0x17, 0xa9, 0xbe, 0x42, 0x10, 0xbf, 0x3d,
  0xd5, 0x75, 0xa9, 0xbd, 0xc4, 0x1e, 0x89, 0xbd, 0xc0, 0x86, 0x55, 0x3e,
  0x46, 0xb7, 0xaf, 0xbc, 0xd7, 0x18, 0x9a, 0x3e, 0xf7, 0x23, 0x5f, 0xbe,
  0xd0, 0xcf, 0x31, 0xbc, 0xa0, 0xc0, 0x35, 0xbe, 0x1f, 0x84, 0x9d, 0xbd,
  0x9c, 0x11, 0xa8, 0xbe, 0x89, 0x10, 0xd4, 0xbd, 0xde, 0xd5, 0x18, 0xbd,
  0xec, 0xfe, 0xaa, 0xbd, 0x1b, 0xfd, 0x76, 0x3d, 0xb6, 0x29, 0x28, 0xbe,
  0xee, 0xfd, 0x7c, 0x3d, 0x78, 0x77, 0x2e, 0x3e, 0x62, 0xcc, 0xae, 0xbc,
  0x41, 0x8e, 0x11, 0x3e, 0x4e, 0xfb, 0x14, 0x3e, 0xe2, 0x5c, 0x51, 0x3e,
  0xa7, 0x9a, 0xb6, 0xbd, 0x0e, 0x8b, 0x10, 0x3e, 0xfa, 0x88, 0x93, 0xbd,
  0x7c, 0x2a, 0x1c, 0x3e, 0x69, 0x07, 0x87, 0xbe, 0xe7, 0xa9, 0x38, 0xbd,
  0xb3, 0x14, 0x09, 0xbe, 0x2c, 0x9e, 0x90, 0x3e, 0xf9, 0xfe, 0xb8, 0x3c,
  0xda, 0x54, 0xd5, 0xbd, 0xde, 0x03, 0x64, 0x3d, 0x7e, 0x69, 0x56, 0x3e,
  0x80, 0xa0, 0xb1, 0xbd, 0xd7, 0x8d, 0x36, 0x3d, 0x89, 0x1f, 0xd8, 0xbd,
  0x12, 0x7a, 0x7e, 0x3e, 0x44, 0x21, 0x41, 0xbe, 0xc9, 0x96, 0x6d, 0x3c,
  0xeb, 0x6f, 0x9d, 0x3d, 0x09, 0x18, 0xae, 0x3e, 0xd5, 0x1c, 0x17, 0xbe,
  0xf9, 0xe3, 0x17, 0x3e, 0x1e, 0x51, 0x98, 0x3d, 0xa9, 0xad, 0xcb, 0x3d,
  0xc0, 0x34, 0x80, 0xbd, 0x17, 0x91, 0x84, 0xbe, 0x4d, 0x81, 0x1e, 0xbc,
  0x58, 0x80, 0xd9, 0xbd, 0x45, 0x0f, 0x11, 0xbe, 0xcd, 0x5a, 0x16, 0x3e,
  0x48, 0x78, 0x48, 0xbe, 0x37, 0x4a, 0xc6, 0x3d, 0xef, 0xf7, 0x05, 0xbe,
  0x82, 0x09, 0x0e, 0x3e, 0xc6, 0xe2, 0xb3, 0xbd, 0x6a, 0xe6, 0x44, 0x3e,
  0xd9, 0xf0, 0x7e, 0xbd, 0x41, 0x60, 0x4b, 0x3d, 0x81, 0xb0, 0x82, 0x3d,
  0x60, 0x40, 0x1d, 0xbe, 0xa8, 0xf1, 0xf1, 0x3c, 0xb0, 0x67, 0xe5, 0xbd,
  0xad, 0x66, 0x93, 0xba, 0x54, 0x0a, 0x90, 0xbd, 0x5a, 0x8d, 0x42, 0xbe,
  0xa2, 0x12, 0x5b, 0x3e, 0xfc, 0xfd, 0x12, 0xbe, 0x1d, 0x98, 0xb3, 0x3d,
  0xab, 0x9c, 0x4d, 0xbe, 0x1e, 0x87, 0xb8, 0xbd, 0x97, 0xc8, 0x27, 0xbe,
  0x25, 0x47, 0x8e, 0x3d, 0x8c, 0x83, 0x8f, 0xbe, 0x02, 0x7a, 0x0b, 0x3e,
  0x03, 0x8a, 0x4c, 0x3e, 0xe0, 0x77, 0x27, 0xbd, 0xbe, 0xd4, 0x03, 0xbe,
  0x6b, 0xba, 0x16, 0x3e, 0x31, 0x05, 0x2b, 0xbc, 0x8b, 0x1d, 0x0d, 0xbe,
  0xa5, 0x67, 0x92, 0xbb, 0x53, 0x93, 0x5a, 0xbd, 0xec, 0xef, 0x76, 0xbe,
  0x1a, 0xdd, 0xba, 0x3d, 0x88, 0xbd, 0xaa, 0xbe, 0xc8, 0x8b, 0xc9, 0x3d,
  0xc4, 0x6a, 0x00, 0xbe, 0x41, 0x40, 0x53, 0xbe, 0xaf, 0x65, 0x97, 0xbd,
  0xf7, 0x3c, 0x5d, 0xbd, 0x31, 0x72, 0x7e, 0xbe, 0xe5, 0xd1, 0x60, 0x3d,
  0x25, 0xb4, 0x0e, 0x3d, 0x4f, 0x8b, 0x49, 0x3f, 0xb0, 0x97, 0xce, 0xbd,
  0x11, 0xf8, 0x88, 0xbe, 0xb5, 0x7c, 0x8f, 0xbc, 0xc8, 0x27, 0xab, 0xbd,
  0x6d, 0x99, 0x7d, 0xbe, 0x5b, 0x2f, 0x5e, 0xbe, 0x4f, 0x3c, 0x2f, 0xbe,
  0x19, 0x9b, 0xb9, 0x3d, 0x8b, 0x92, 0x91, 0xbe, 0x0f, 0x5c, 0x1d, 0xbe,
  0x25, 0xe0, 0x0a, 0x3d, 0x82, 0x68, 0x61, 0xbe, 0x9d, 0xb3, 0xf8, 0xbc,
  0xca, 0x68, 0x97, 0xbc, 0x3d, 0xa4, 0x25, 0x3d, 0x8a, 0xeb, 0x1d, 0x3f,
  0x27, 0x97, 0x0c, 0xbe, 0x8c, 0xee, 0x0c, 0x3e, 0xc9, 0x50, 0x9f, 0xbe,
  0xb2, 0x33, 0x1b, 0x3d, 0x62, 0xf9, 0x1c, 0x3e, 0xe5, 0x3a, 0x8e, 0xbe,
  0x5d, 0xae, 0x9b, 0xbe, 0xde, 0xdd, 0x4a, 0xbe, 0x3a, 0xe8, 0x84, 0xbd,
  0xbc, 0xc2, 0x21, 0x3e, 0x1a, 0x49, 0x24, 0x3e, 0xe7, 0xe6, 0xaa, 0x3c,
  0x33, 0x3f, 0x56, 0xbb, 0x09, 0xb9, 0xfa, 0x3d, 0x10, 0x56, 0xb7, 0x3d,
  0x5b, 0x7f, 0x19, 0x3f, 0xaa, 0xef, 0xad, 0xbe, 0x54, 0x7f, 0x96, 0xbe,
  0x1b, 0xfd, 0x61, 0x3d, 0x45, 0x07, 0x25, 0x3e, 0x80, 0x63, 0x19, 0xbe,
  0x03, 0x87, 0x89, 0x3d, 0x3f, 0x9c, 0x52, 0xbe, 0x9f, 0x6a, 0x4b, 0xbe,
  0xc7, 0x0e, 0xc9, 0x3d, 0x94, 0xcb, 0xcd, 0x3d, 0x9b, 0x65, 0x99, 0xbd,
  0xf9, 0xc5, 0xe3, 0x3d, 0x1d, 0x66, 0xaa, 0xbd, 0xc2, 0x32, 0x8a, 0xbe,
  0xbb, 0x19, 0x14, 0xbe, 0x02, 0x1b, 0x29, 0x3f, 0x7f, 0x5a, 0xc2, 0xbe,
  0x74, 0xd5, 0x7f, 0xbe, 0xe7, 0xc5, 0x6a, 0xbd, 0xc7, 0x85, 0x2e, 0xbe,
  0x67, 0xb4, 0xfe, 0x3d, 0xb4, 0x42, 0xcf, 0x3d, 0xeb, 0xad, 0x89, 0xbd,
  0xd7, 0xbb, 0x8d, 0xbd, 0x70, 0x66, 0xba, 0xbc, 0x7a, 0x9f, 0x43, 0xbe,
  0x33, 0x68, 0x34, 0xbd, 0xce, 0xaf, 0xc2, 0xbd, 0x41, 0x6b, 0x04, 0x3d,
  0x8d, 0x9f, 0x2f, 0x3d, 0xe4, 0x09, 0x04, 0xbe, 0x40, 0x8c, 0x2d, 0x3f,
  0x46, 0x7b, 0x82, 0xbe, 0xae, 0x19, 0x0f, 0xbe, 0xe5, 0x8e, 0xbb, 0x3c,
  0x03, 0xb0, 0x53, 0xbe, 0xc2, 0x92, 0xfa, 0x3c, 0x6d, 0x57, 0x14, 0xbe,
  0x42, 0xfe, 0x37, 0xbe, 0x41, 0x87, 0xe3, 0xbc, 0x6d, 0xcb, 0x04, 0x3e,
  0xea, 0xf9, 0xf4, 0xbd, 0xc1, 0xbc, 0x92, 0x3e, 0x44, 0xa2, 0x1e, 0xbe,
  0x83, 0xa6, 0x07, 0xbe, 0xc7, 0x45, 0xcd, 0x3d, 0xf1, 0x33, 0xd5, 0xbd,
  0x15, 0x2e, 0x63, 0x3f, 0x76, 0x42, 0x4f, 0xbe, 0x9b, 0x73, 0x8b, 0x39,
  0xdf, 0x8e, 0x8a, 0xbe, 0xd6, 0x8f, 0xde, 0xbb, 0xcc, 0x24, 0xfd, 0xbd,
  0x9e, 0xd0, 0x24, 0xbe, 0xb2, 0xe6, 0x8c, 0xbe, 0x6e, 0xf8, 0x5e, 0xbe,
  0xd5, 0x52, 0xd2, 0xbd, 0x8e, 0x83, 0x3f, 0x3e, 0xbf, 0xdd, 0x23, 0x3e,
  0x53, 0xad, 0x9f, 0xbd, 0x01, 0x40, 0x7b, 0xbd, 0x1a, 0xd4, 0x5a, 0xbe,
  0xba, 0x73, 0x17, 0xbe, 0x72, 0xfd, 0x00, 0x3e, 0xec, 0x6b, 0x76, 0xbe,
  0x01, 0xe1, 0xc5, 0x3d, 0x75, 0x3c, 0x8f, 0xbe, 0x65, 0x0f, 0x1c, 0xbd,
  0xc4, 0x23, 0x32, 0xbe, 0x7c, 0xed, 0xe3, 0xbd, 0xd9, 0x09, 0x87, 0xbe,
  0xdc, 0x89, 0x49, 0x3e, 0x77, 0xf5, 0x78, 0xbe, 0xe9, 0x43, 0x33, 0xbe,
  0xd4, 0x3b, 0x28, 0xbe, 0x3d, 0xcb, 0x2e, 0xbe, 0x8c, 0x5d, 0x09, 0x3d,
  0xe1, 0x33, 0x8b, 0x3d, 0x9c, 0x2f, 0x78, 0xbe, 0x17, 0xb9, 0x6c, 0xbd,
  0x2e, 0x2a, 0x9b, 0xbe, 0x87, 0x6f, 0x2d, 0x3d, 0x50, 0x55, 0xbe, 0x3d,
  0x64, 0xa7, 0x3b, 0xbe, 0xb7, 0xee, 0xf5, 0x3b, 0xb5, 0x0e, 0x8f, 0x3d,
  0x85, 0x09, 0xce, 0xbd, 0x04, 0x7e, 0x58, 0xbd, 0xf3, 0x63, 0x6e, 0xbe,
  0x07, 0x71, 0x30, 0x3d, 0x64, 0xe7, 0xc1, 0x3d, 0x6a, 0xd8, 0x4d, 0xbe,
  0x88, 0xf9, 0x86, 0xbb, 0xce, 0xb8, 0xbd, 0xbd, 0x99, 0x19, 0x80, 0x3c,
  0xa7, 0xfd, 0x35, 0xbe, 0xae, 0xba, 0x9f, 0xbe, 0x87, 0x19, 0x0a, 0x3e,
  0x20, 0xc3, 0xb7, 0xbd, 0xf7, 0xca, 0x87, 0xbd, 0xdf, 0xb8, 0xcc, 0x3c,
  0x2d, 0xa5, 0x54, 0x3d, 0xcc, 0x86, 0x87, 0xbe, 0x9a, 0xc9, 0x37, 0xbe,
  0x67, 0xe0, 0x0c, 0xbe, 0x0e, 0x6f, 0x62, 0x3e, 0x02, 0x67, 0xe5, 0xbd,
  0xa5, 0x30, 0x69, 0x3d, 0x26, 0x6f, 0x4b, 0xbe, 0x55, 0x19, 0x94, 0x3d,
  0xe3, 0x01, 0x64, 0xbe, 0xe9, 0x50, 0xb9, 0xbc, 0xd4, 0x4e, 0x67, 0xbe,
  0xf4, 0x8b, 0x2b, 0xbe, 0x78, 0x3a, 0x61, 0xbe, 0x1c, 0x57, 0x51, 0x3e,
  0x67, 0x64, 0x1f, 0xbc, 0xa5, 0x40, 0xed, 0x3d, 0x9a, 0xeb, 0x77, 0xbd,
  0x82, 0xda, 0x91, 0xbd, 0xf2, 0x24, 0xa3, 0x3d, 0xba, 0x20, 0x12, 0xbe,
  0xa1, 0x4a, 0xb3, 0xbd, 0xbe, 0x13, 0xf2, 0xbd, 0xca, 0x4f, 0x0c, 0xbe,
  0x19, 0xb5, 0x85, 0xbc, 0x8b, 0xd8, 0x54, 0xbe, 0x3b, 0xe0, 0xa8, 0x3d,
  0x42, 0x1a, 0xdf, 0xbd, 0x05, 0x53, 0x30, 0xbe, 0x36, 0x4c, 0x96, 0x3d,
  0x45, 0x15, 0x40, 0xbd, 0x97, 0x7e, 0xd0, 0x3d, 0x87, 0x7b, 0x10, 0x3e,
  0x9e, 0x90, 0x30, 0xbe, 0xaa, 0xe3, 0x37, 0xbe, 0x7e, 0x5a, 0x4b, 0x3d,
  0x1c, 0x71, 0x01, 0x3e, 0x39, 0x6e, 0x18, 0x3c, 0xc0, 0x32, 0xe1, 0xbd,
  0xec, 0x5c, 0x16, 0x3e, 0x51, 0x8f, 0xe0, 0xbc, 0x4c, 0x37, 0x29, 0xbd,
  0x17, 0x3e, 0xe8, 0xbd, 0xce, 0xc2, 0x17, 0xbe, 0xb8, 0x12, 0xee, 0xbc,
  0xfe, 0xb0, 0x5e, 0xbe, 0x8f, 0xf5, 0xa8, 0x3d, 0x73, 0x3d, 0x11, 0x3e,
  0xcd, 0x9a, 0x43, 0xbd, 0x97, 0xdd, 0xf1, 0xbd, 0x60, 0x9a, 0x0b, 0xbe,
  0xeb, 0xd7, 0x12, 0xbe, 0xdf, 0x7f, 0x34, 0xbe, 0x7e, 0x22, 0x9e, 0x3c,
  0xf7, 0x36, 0xc5, 0xbb, 0x77, 0x0f, 0x6b, 0xbe, 0xc2, 0xec, 0x2b, 0xbe,
  0xa5, 0x6c, 0x74, 0xbe, 0x0c, 0xe0, 0xec, 0x3d, 0xbe, 0xc8, 0x0c, 0xbe,
  0xc1, 0xa5, 0x69, 0xbe, 0xcb, 0x82, 0x4c, 0xbe, 0x0a, 0x60, 0x20, 0x3e,
  0x58, 0x87, 0x3f, 0xbe, 0xbd, 0x34, 0x81, 0x3a, 0x29, 0x5b, 0x72, 0xbd,
  0x98, 0x89, 0x53, 0xbe, 0x49, 0xea, 0xef, 0xbd, 0xde, 0x9e, 0x10, 0x3e,
  0xd5, 0xcf, 0xa3, 0x3c, 0x14, 0xa6, 0x81, 0x3d, 0xf1, 0xba, 0x5c, 0xbe,
  0x23, 0xbc, 0xf7, 0xbd, 0xdb, 0xb1, 0x10, 0xbd, 0x73, 0xff, 0x23, 0xbe,
  0x4f, 0xa1, 0xa8, 0xbd, 0x23, 0xf7, 0x7c, 0xbe, 0x50, 0x0a, 0x6c, 0xbd,
  0x0b, 0xdc, 0xbd, 0xbd, 0x4b, 0xb7, 0x16, 0x3d, 0x32, 0x4b, 0x56, 0xbe,
  0xbf, 0x11, 0x97, 0xbe, 0xc8, 0x2a, 0xe3, 0xbd, 0x86, 0xa7, 0x94, 0x3d,
  0x45, 0x73, 0x86, 0xbd, 0xcf, 0x6c, 0x37, 0xbe, 0xd7, 0x11, 0x70, 0xbe,
  0x1c, 0x1b, 0x26, 0x3e, 0xfa, 0x59, 0xe1, 0x3d, 0xa0, 0xff, 0x88, 0xbc,
  0x8e, 0x4f, 0x83, 0x3e, 0x66, 0x9c, 0x6e, 0xbf, 0x6b, 0xf9, 0x3c, 0x3c,
  0x46, 0x29, 0x0b, 0xbf, 0x0a, 0xec, 0x21, 0xbf, 0x86, 0x42, 0x05, 0x3e,
  0xec, 0xba, 0xcf, 0xbc, 0xb2, 0x58, 0x4f, 0xbe, 0x14, 0x1f, 0x07, 0x3e,
  0x4c, 0xc3, 0x12, 0xbe, 0xd4, 0xec, 0xd5, 0xbd, 0xe6, 0x9c, 0x0d, 0x3e,
  0xaa, 0xde, 0x6e, 0xbe, 0xca, 0xf1, 0x21, 0x3e, 0x89, 0xa0, 0x60, 0x3e,
  0x3d, 0xf4, 0x73, 0xbd, 0xc3, 0x6c, 0x56, 0x3e, 0x9d, 0x20, 0x23, 0xbf,
  0xc8, 0x5a, 0xa5, 0x3a, 0xa5, 0x92, 0xb4, 0xbe, 0x9a, 0xd3, 0x57, 0xbe,
  0x83, 0xc8, 0xe9, 0x3d, 0x09, 0x6a, 0xd1, 0x3d, 0xc8, 0x72, 0xe6, 0xbd,
  0x36, 0xbe, 0x97, 0x3e, 0xb8, 0xed, 0x62, 0x3e, 0xaa, 0xcb, 0x77, 0xbe,
  0xc4, 0xf2, 0x3e, 0xbd, 0x89, 0x74, 0x81, 0x3e, 0x4b, 0xe4, 0x17, 0x3e,
  0x16, 0x2a, 0xb4, 0x3e, 0xe1, 0x99, 0xc0, 0xbd, 0xc5, 0x35, 0x94, 0x3e,
  0x74, 0x4b, 0xcb, 0xbe, 0x1a, 0x6f, 0x35, 0xbb, 0x82, 0x0c, 0x3f, 0xbe,
  0x48, 0xb8, 0x11, 0x3e, 0xd0, 0x0a, 0x0f, 0x3e, 0xeb, 0x93, 0x15, 0x3d,
  0x37, 0xa7, 0xd1, 0xbb, 0xcb, 0xcb, 0x66, 0x3e, 0x27, 0x07, 0xab, 0x3d,
  0xa8, 0xdb, 0x6f, 0xbe, 0x95, 0x43, 0x8c, 0x3d, 0xb1, 0x4c, 0x96, 0x3e,
  0x7b, 0x57, 0xe4, 0x3d, 0xcd, 0x05, 0xa0, 0x3e, 0x57, 0x2a, 0x41, 0x39,
  0x05, 0x15, 0xbc, 0x3e, 0xf4, 0xd6, 0x54, 0xbe, 0x17, 0x7a, 0x9e, 0xbe,
  0x71, 0x06, 0x59, 0xbd, 0xc8, 0x5b, 0x81, 0x3e, 0x87, 0xc8, 0x48, 0x3e,
  0x5d, 0x7a, 0x22, 0x3c, 0x0f, 0xcf, 0x8c, 0x3d, 0x07, 0x96, 0xd1, 0x3d,
  0x7c, 0x2c, 0x0b, 0x3e, 0x6e, 0x1b, 0x85, 0xbc, 0x4a, 0x81, 0x40, 0x3e,
  0xeb, 0x81, 0xb4, 0x3e, 0x1e, 0x24, 0xaf, 0x3d, 0x59, 0xe8, 0x52, 0x3e,
  0x1c, 0xff, 0x08, 0xbe, 0x29, 0xca, 0xed, 0xbc, 0xfc, 0x94, 0x1a, 0xbd,
  0x31, 0x06, 0x05, 0xbe, 0xe7, 0x29, 0xd5, 0x3c, 0x7b, 0x2d, 0x4a, 0x3e,
  0x04, 0x81, 0xbe, 0xbd, 0x06, 0xa5, 0xaf, 0xbd, 0x0a, 0xaa, 0xf0, 0x3c,
  0x58, 0xbe, 0xe6, 0xbc, 0xdc, 0x35, 0x3d, 0x3e, 0x50, 0x2d, 0x80, 0xbe,
  0x50, 0xf9, 0x36, 0xbe, 0x86, 0x88, 0xba, 0x3d, 0xbe, 0x02, 0x71, 0xbd,
  0xc3, 0xc7, 0x0b, 0xbd, 0x4b, 0x27, 0x8a, 0xbd, 0x89, 0x9c, 0xa7, 0xbe,
  0xef, 0x54, 0x0c, 0x3d, 0xa0, 0xb4, 0xc1, 0xbd, 0x62, 0xd1, 0x54, 0x3e,
  0x6b, 0x24, 0x6e, 0x3e, 0x70, 0xec, 0x5d, 0xbe, 0x25, 0x42, 0x4a, 0xbe,
  0xd5, 0xd0, 0x08, 0x3e, 0x70, 0xf2, 0x04, 0xbd, 0x58, 0x41, 0x93, 0x3d,
  0x8d, 0x46, 0x6a, 0x3c, 0x91, 0x57, 0x30, 0xbd, 0x54, 0xad, 0x4d, 0x3e,
  0x6c, 0xa9, 0x8f, 0xbe, 0xf3, 0xbc, 0x79, 0xbe, 0xdb, 0xaa, 0x8d, 0xbc,
  0x72, 0x54, 0x5b, 0xbf, 0x6f, 0x3f, 0x08, 0x3e, 0x6c, 0x30, 0xa8, 0x3d,
  0x3d, 0x25, 0xbc, 0x3e, 0xe2, 0xac, 0x90, 0x3e, 0xf1, 0x34, 0x1c, 0xbe,
  0xbe, 0xf2, 0x09, 0xbe, 0x53, 0x6e, 0x06, 0x3e, 0xd3, 0xa9, 0x01, 0x3d,
  0xda, 0x36, 0x69, 0xbd, 0xac, 0x86, 0x5d, 0xbc, 0x93, 0x1c, 0x54, 0xbe,
  0x6b, 0xcf, 0x0b, 0x3d, 0x62, 0xfd, 0xff, 0xff, 0x10, 0x00, 0x00, 0x00,
  0x07, 0x00, 0x00, 0x00, 0x14, 0x00, 0x00, 0x00, 0x2c, 0x00, 0x00, 0x00,
  0x02, 0x00, 0x00, 0x00, 0x10, 0x00, 0x00, 0x00, 0x70, 0x00, 0x00, 0x00,
  0x17, 0x00, 0x00, 0x00, 0x73, 0x65, 0x71, 0x75, 0x65, 0x6e, 0x74, 0x69,
  0x61, 0x6c, 0x2f, 0x64, 0x65, 0x6e, 0x73, 0x65, 0x2f, 0x4d, 0x61, 0x74,
  0x4d, 0x75, 0x6c, 0x00, 0xcc, 0xfc, 0xff, 0xff, 0xd6, 0xfd, 0xff, 0xff,
  0x04, 0x00, 0x00, 0x00, 0x08, 0x00, 0x00, 0x00, 0xff, 0xff, 0xff, 0xff,
  0x70, 0x00, 0x00, 0x00, 0x00, 0x00, 0x0e, 0x00, 0x18, 0x00, 0x08, 0x00,
  0x07, 0x00, 0x0c, 0x00, 0x10, 0x00, 0x14, 0x00, 0x0e, 0x00, 0x00, 0x00,
  0x00, 0x00, 0x00, 0x02, 0x10, 0x00, 0x00, 0x00, 0x06, 0x00, 0x00, 0x00,
  0x10, 0x00, 0x00, 0x00, 0x2c, 0x00, 0x00, 0x00, 0x01, 0x00, 0x00, 0x00,
  0x02, 0x00, 0x00, 0x00, 0x18, 0x00, 0x00, 0x00, 0x73, 0x65, 0x71, 0x75,
  0x65, 0x6e, 0x74, 0x69, 0x61, 0x6c, 0x2f, 0x66, 0x6c, 0x61, 0x74, 0x74,
  0x65, 0x6e, 0x2f, 0x43, 0x6f, 0x6e, 0x73, 0x74, 0x00, 0x00, 0x00, 0x00,
  0x34, 0xfd, 0xff, 0xff, 0x3e, 0xfe, 0xff, 0xff, 0x04, 0x00, 0x00, 0x00,
  0x10, 0x00, 0x00, 0x00, 0x3a, 0x00, 0x73, 0xc0, 0x5e, 0xf1, 0x95, 0xc0,
  0xe1, 0x51, 0x3e, 0x3f, 0x32, 0x2d, 0x24, 0x40, 0x26, 0xfe, 0xff, 0xff,
  0x10, 0x00, 0x00, 0x00, 0x05, 0x00, 0x00, 0x00, 0x10, 0x00, 0x00, 0x00,
  0x44, 0x00, 0x00, 0x00, 0x01, 0x00, 0x00, 0x00, 0x04, 0x00, 0x00, 0x00,
  0x32, 0x00, 0x00, 0x00, 0x73, 0x65, 0x71, 0x75, 0x65, 0x6e, 0x74, 0x69,
  0x61, 0x6c, 0x2f, 0x64, 0x65, 0x6e, 0x73, 0x65, 0x5f, 0x31, 0x2f, 0x42,
  0x69, 0x61, 0x73, 0x41, 0x64, 0x64, 0x2f, 0x52, 0x65, 0x61, 0x64, 0x56,
  0x61, 0x72, 0x69, 0x61, 0x62, 0x6c, 0x65, 0x4f, 0x70, 0x2f, 0x72, 0x65,
  0x73, 0x6f, 0x75, 0x72, 0x63, 0x65, 0x00, 0x00, 0xa8, 0xfd, 0xff, 0xff,
  0xb2, 0xfe, 0xff, 0xff, 0x04, 0x00, 0x00, 0x00, 0x40, 0x00, 0x00, 0x00,
  0x0e, 0x2e, 0x9e, 0xbe, 0xcf, 0x60, 0x83, 0xbe, 0xb3, 0x65, 0x37, 0xbf,
  0xb4, 0x91, 0x29, 0xbf, 0x75, 0xaa, 0x62, 0xbf, 0x8c, 0xd0, 0x8d, 0xbf,
  0xec, 0x72, 0x24, 0xbf, 0x78, 0xab, 0xa8, 0xbe, 0xcf, 0x14, 0xc9, 0x3f,
  0x1b, 0x71, 0x21, 0x40, 0x5b, 0x35, 0x46, 0xbf, 0x19, 0xbd, 0x19, 0xbf,
  0xa6, 0xb0, 0x1f, 0xbe, 0x5c, 0x14, 0x8b, 0x3e, 0xd2, 0xf4, 0x82, 0xbe,
  0x8d, 0xc2, 0x46, 0x3f, 0xca, 0xfe, 0xff, 0xff, 0x10, 0x00, 0x00, 0x00,
  0x04, 0x00, 0x00, 0x00, 0x10, 0x00, 0x00, 0x00, 0x44, 0x00, 0x00, 0x00,
  0x01, 0x00, 0x00, 0x00, 0x10, 0x00, 0x00, 0x00, 0x30, 0x00, 0x00, 0x00,
  0x73, 0x65, 0x71, 0x75, 0x65, 0x6e, 0x74, 0x69, 0x61, 0x6c, 0x2f, 0x64,
  0x65, 0x6e, 0x73, 0x65, 0x2f, 0x42, 0x69, 0x61, 0x73, 0x41, 0x64, 0x64,
  0x2f, 0x52, 0x65, 0x61, 0x64, 0x56, 0x61, 0x72, 0x69, 0x61, 0x62, 0x6c,
  0x65, 0x4f, 0x70, 0x2f, 0x72, 0x65, 0x73, 0x6f, 0x75, 0x72, 0x63, 0x65,
  0x00, 0x00, 0x00, 0x00, 0x4c, 0xfe, 0xff, 0xff, 0x56, 0xff, 0xff, 0xff,
  0x04, 0x00, 0x00, 0x00, 0x40, 0x00, 0x00, 0x00, 0xbd, 0x70, 0x54, 0x3f,
  0x09, 0xc9, 0x2f, 0xbf, 0x9a, 0xf4, 0x6d, 0xbf, 0xa5, 0xb1, 0x4e, 0x40,
  0x10, 0x61, 0x67, 0xbf, 0xfe, 0x7b, 0x53, 0xbf, 0xf7, 0xd0, 0xa8, 0xbf,
  0x98, 0xdc, 0xe4, 0xbe, 0xc0, 0x72, 0x77, 0xbf, 0xbe, 0x31, 0x5e, 0xbe,
  0xb5, 0xf4, 0xec, 0xbe, 0x91, 0x7e, 0x0a, 0xbe, 0x41, 0x63, 0xa6, 0xbf,
  0xe6, 0x2d, 0x1e, 0xbf, 0xa9, 0x45, 0x34, 0x3f, 0x7c, 0xa7, 0x38, 0xbf,
  0x6e, 0xff, 0xff, 0xff, 0x10, 0x00, 0x00, 0x00, 0x03, 0x00, 0x00, 0x00,
  0x10, 0x00, 0x00, 0x00, 0x48, 0x00, 0x00, 0x00, 0x01, 0x00, 0x00, 0x00,
  0x10, 0x00, 0x00, 0x00, 0x33, 0x00, 0x00, 0x00, 0x73, 0x65, 0x71, 0x75,
  0x65, 0x6e, 0x74, 0x69, 0x61, 0x6c, 0x2f, 0x63, 0x6f, 0x6e, 0x76, 0x32,
  0x64, 0x5f, 0x31, 0x2f, 0x42, 0x69, 0x61, 0x73, 0x41, 0x64, 0x64, 0x2f,
  0x52, 0x65, 0x61, 0x64, 0x56, 0x61, 0x72, 0x69, 0x61, 0x62, 0x6c, 0x65,
  0x4f, 0x70, 0x2f, 0x72, 0x65, 0x73, 0x6f, 0x75, 0x72, 0x63, 0x65, 0x00,
  0x04, 0x00, 0x06, 0x00, 0x04, 0x00, 0x00, 0x00, 0x00, 0x00, 0x06, 0x00,
  0x08, 0x00, 0x04, 0x00, 0x06, 0x00, 0x00, 0x00, 0x04, 0x00, 0x00, 0x00,
  0x20, 0x00, 0x00, 0x00, 0x3f, 0x4e, 0x06, 0xbd, 0x68, 0x8d, 0x01, 0xc0,
  0xb1, 0xe4, 0xf3, 0x3d, 0x0b, 0xba, 0xf3, 0xbf, 0x5d, 0x50, 0x9e, 0xbf,
  0x1c, 0xc3, 0xb1, 0xbf, 0x43, 0x91, 0x94, 0xc0, 0xef, 0xd0, 0x38, 0x3d,
  0x00, 0x00, 0x0e, 0x00, 0x14, 0x00, 0x04, 0x00, 0x00, 0x00, 0x08, 0x00,
  0x0c, 0x00, 0x10, 0x00, 0x0e, 0x00, 0x00, 0x00, 0x10, 0x00, 0x00, 0x00,
  0x02, 0x00, 0x00, 0x00, 0x10, 0x00, 0x00, 0x00, 0x44, 0x00, 0x00, 0x00,
  0x01, 0x00, 0x00, 0x00, 0x08, 0x00, 0x00, 0x00, 0x31, 0x00, 0x00, 0x00,
  0x73, 0x65, 0x71, 0x75, 0x65, 0x6e, 0x74, 0x69, 0x61, 0x6c, 0x2f, 0x63,
  0x6f, 0x6e, 0x76, 0x32, 0x64, 0x2f, 0x42, 0x69, 0x61, 0x73, 0x41, 0x64,
  0x64, 0x2f, 0x52, 0x65, 0x61, 0x64, 0x56, 0x61, 0x72, 0x69, 0x61, 0x62,
  0x6c, 0x65, 0x4f, 0x70, 0x2f, 0x72, 0x65, 0x73, 0x6f, 0x75, 0x72, 0x63,
  0x65, 0x00, 0x00, 0x00, 0x90, 0xff, 0xff, 0xff, 0x14, 0x00, 0x18, 0x00,
  0x04, 0x00, 0x00, 0x00, 0x08, 0x00, 0x0c, 0x00, 0x10, 0x00, 0x00, 0x00,
  0x00, 0x00, 0x14, 0x00, 0x14, 0x00, 0x00, 0x00, 0x14, 0x00, 0x00, 0x00,
  0x01, 0x00, 0x00, 0x00, 0x20, 0x00, 0x00, 0x00, 0x44, 0x00, 0x00, 0x00,
  0x2c, 0x00, 0x00, 0x00, 0x04, 0x00, 0x00, 0x00, 0x01, 0x00, 0x00, 0x00,
  0x40, 0x00, 0x00, 0x00, 0x03, 0x00, 0x00, 0x00, 0x01, 0x00, 0x00, 0x00,
  0x0c, 0x00, 0x00, 0x00, 0x63, 0x6f, 0x6e, 0x76, 0x32, 0x64, 0x5f, 0x69,
  0x6e, 0x70, 0x75, 0x74, 0x00, 0x00, 0x00, 0x00, 0x04, 0x00, 0x00, 0x00,
  0xff, 0xff, 0xff, 0xff, 0x40, 0x00, 0x00, 0x00, 0x03, 0x00, 0x00, 0x00,
  0x01, 0x00, 0x00, 0x00, 0xfc, 0xff, 0xff, 0xff, 0x04, 0x00, 0x04, 0x00,
  0x04, 0x00, 0x00, 0x00
};


unsigned int model_tflite_len = 13120;// Fill the int in `src/model.cc` here